/**
  ******************************************************************************
  * @file    network_data.c
  * @author  AST Embedded Analytics Research Platform
  * @date    2026-01-01T20:54:05+0000
  * @brief   AI Tool Automatic Code Generator for Embedded NN computing
  ******************************************************************************
  * Copyright (c) 2026 STMicroelectronics.
  * All rights reserved.
  *
  * This software is licensed under terms that can be found in the LICENSE file
  * in the root directory of this software component.
  * If no LICENSE file comes with this software, it is provided AS-IS.
  ******************************************************************************
  */

#include "network_data.h"
STAI_ALIGNED(8)
const uint64_t g_network_dense_dense_weights_array[1300] = {
  0x3ef185d03dc512f6U, 0x3ea2a3c93e09de79U, 0xbf26443ebe7eec3bU, 0x3e8572a73e0b4620U,
  0x3ec137e83e883ea5U, 0xbee86850bbfe0500U, 0xbd8251c4be91b425U, 0xbea20c42bde3a9e9U,
  0xbd8acb1c3d8f9975U, 0xbd98b45c3e182ac3U, 0x3e2cd3913de8c4e2U, 0xbda842d13d96cad4U,
  0x3e479c72bec6f58eU, 0xbe0102603e1d580eU, 0x3d1e03a83d0223a1U, 0xbed13fd3be140753U,
  0x3e199c133e940a3dU, 0xbd3f095bbea6a5ddU, 0x3d54f8ecbd80f7b7U, 0x3daa0456be672d22U,
  0x3c06f7c83ead0178U, 0x3d87826abee6f62fU, 0x3ec5e98bbd70ef13U, 0x3ec4206e3e820b85U,
  0xbe8a73cfbdc4c53aU, 0xbe5db7fcbe443da8U, 0xbde3043b3db8242eU, 0x3eb9ad523d975ad9U,
  0xbe8fd78fbc023545U, 0x3e0e9a03bd4866e0U, 0xbc8479babe39e68bU, 0x3bba643d3edc6360U,
  0x3dd3202d3e3d3fe7U, 0xbe79968a3ec0533bU, 0x3e88b1bf3e0e8490U, 0x3e91c7a3be35c523U,
  0xbecbfeebbe87b208U, 0x3d08372d3e449a01U, 0xbe1687193e22b606U, 0x3e835c723dc35c24U,
  0xbe9b3fff3ea33745U, 0x3bb1e63ebebedf9bU, 0xbf00ff063d8969baU, 0x3e1adf003e8f4c26U,
  0xbd6c7f45bd896288U, 0xbd9d1912bd90c611U, 0xbcca5d80be22d42aU, 0x3db3ee66bdf99c8bU,
  0xbebaa153bdc1ca5aU, 0x3dd900bbbddc7097U, 0xbdf3c5c03bbc05f5U, 0xbe6cfff93dc28deeU,
  0x3e6c76b238b553bfU, 0xbe13e7063ea494c3U, 0x3e9fd7703b8bf859U, 0xbb1b349ebe4094fcU,
  0x3e9f9cfabcd00b8aU, 0xbe2da9ee3e32f77cU, 0x3d88fcf53e134d7eU, 0x3e3b7a57bd5fea3bU,
  0xbed360953e768a5bU, 0xbdc50604be34724aU, 0x3e80b68abed6c855U, 0x3e04b9d83ee4b7abU,
  0x3d2771eb3b88227aU, 0xbec4958cbe46323bU, 0xbacf9d18bedf9c83U, 0xbd69ec56bd90831aU,
  0xbe57ce06bed34038U, 0xbe9ffc2bbeb5b517U, 0xbe3218b3bec83c90U, 0x3de5a963be2b1c13U,
  0xbdbca836be655fb5U, 0xbeb295f9bee305c0U, 0xbee545f73ec92a2eU, 0x3e744efa3e672dd6U,
  0xbf2d2bb23f1b6e8cU, 0xbe8365afbe0d827aU, 0xbe8dde253dfdde47U, 0x3d7937ff3c24337cU,
  0xbedf85a93ed9e980U, 0xbf033fffbf03c7daU, 0xbe8d876fbf141fd9U, 0xbec12eb2be0ab777U,
  0xbe09a7adbc101d4dU, 0x3e32a1253dd349bfU, 0x3eb84dbdbe70650dU, 0xbf14f3503e0b529dU,
  0x3ea45731be709e4bU, 0x3c2d9a4cbe5d17d5U, 0x3ed8c0aabe5d0abaU, 0xbe198409be0c6b5cU,
  0x3e27d7e83c74e409U, 0xbe71bfa53e2fbc44U, 0x3e8bc9aa3ee048c4U, 0x3f4f7a2cbd9d18ceU,
  0x3e9c3e94bf433012U, 0x3de06b8bbe318136U, 0xbecafc1e3dd1d167U, 0xbeff53a7be531f90U,
  0x3e225ee43f01eb39U, 0x3e9d97403ebd7e7eU, 0xbe717d5cbdf4bb23U, 0xbefe987cbefac87dU,
  0xbdc1c1d4bcf03578U, 0x3d494cfcbd2bc33cU, 0xbe29f0903e238435U, 0xbdfe9785be04b989U,
  0xbe5313be3d8fd582U, 0xbe0e94aa3c07d380U, 0xbe5895213e1f46cbU, 0xbe00f6f3be3cf2acU,
  0xbb79ee403e2bee1dU, 0xbe5d9c9abc49ee80U, 0xbd6af03cbda1f9a0U, 0x3e5eb11f3de1d29eU,
  0xbe0170d6bdaf84deU, 0x3dc54e6ebbd251c0U, 0xbac35c003d8380f2U, 0x3e3983473de29946U,
  0x3b685d403d8ef65eU, 0x3e2552613d57c174U, 0xbe28b93bbe222e6cU, 0xbda7fcf63d8b549eU,
  0x3c3c3db0bdded80dU, 0xbd98b5f4bdd72599U, 0xbcd2b3e03d8e502aU, 0x3e484c7f3e5ee0e3U,
  0xbda33d8c3dcb2fbaU, 0x3c3eafc03df56386U, 0x3bdf6043bd8e5dabU, 0x3e8832293e68145bU,
  0xbd8bc91b3da173cdU, 0xbe52019c3e7f2c87U, 0x3e1c8d753e83ea42U, 0x3e0ae9c93dfc96c7U,
  0x3db69645beaefc8fU, 0x3d7d84f73e995b83U, 0xbdba244d3f1c3f9dU, 0x3d6fa99ebde554ddU,
  0x3eb6fc65bf150b83U, 0xbdbad8d83f1a1f02U, 0xbe996817bc28dc91U, 0x3d03a783bdbb8e34U,
  0xbd80d2fabe1f0bf3U, 0xbee23a0d3e7501ffU, 0x3de0f2113951db75U, 0xbdcbffe83e4409dfU,
  0xbe2ef7353e55e75eU, 0x3e2431eb3eb5bd57U, 0xbeae8d853e8d7a8bU, 0x3d975409bf014becU,
  0xbe4460c4beb3c65eU, 0x3e97b0b33e60b348U, 0xbefa28583eb10a1eU, 0xbe88c3153c792caaU,
  0xbe4ccf973d7ea5d2U, 0xbea606e13eb8f524U, 0x3d28e377be08148aU, 0xbe4ba69b3d89a9a2U,
  0x3db10e313ebeb8acU, 0x3ed141343d8bf506U, 0xbe903170bdbbd940U, 0xbeb4bb483ec77aa6U,
  0xbe8463073ca6b677U, 0xbe22e8ccbe583d35U, 0xbf166eecbe162674U, 0xbd27184dbed39ecaU,
  0xbe0590c4bed34b66U, 0xbbd4ebe73dbc1149U, 0x3ec0db5d3d478080U, 0xbe15d545be0546daU,
  0x3f0481973ef3d69bU, 0x3cc606ccbe0a8f26U, 0xbebf30fb3dfb308dU, 0xbcd74966be52f7c4U,
  0x3e7a808abd976c82U, 0xbeb05089be16dfb4U, 0x3f1729ec3e1d89c6U, 0x3e515739be466691U,
  0x3e97e94cbb5aed40U, 0x3eb56615be7c048fU, 0x3e6c08823df35135U, 0x3db76745bde3d5b9U,
  0xbe27f78fbee6a0c0U, 0xbea44dafbf1a6fd3U, 0xbdaaf382bbd5b5a4U, 0x3ea6270e3dad3f8eU,
  0xbe48df61be0b641aU, 0x3e8f60793d1d8229U, 0xbdd060673ed4aee9U, 0xbd43b848bd9dee0dU,
  0xbe046fbebf20f123U, 0x3f4287c13e02be7aU, 0x3ecd92f03f6e9e51U, 0x3e7a39583e391e2eU,
  0xbea6dd83bf099157U, 0xbe055e063f4355bfU, 0x3d6392203df05b59U, 0xbf2308803e751196U,
  0x3f4c92cfbd7d6262U, 0xbe3e7515be91f915U, 0x3eb4c7e9be26c1cbU, 0xbe8aa7593ef5bf83U,
  0x3e8bdbf0bd67dacbU, 0xbe7741debde683fbU, 0xbeaca547bee2804aU, 0x3eed92dbbecc3f7eU,
  0xbe275d873dcc1233U, 0x3e2ee5efbb56f8ebU, 0x3ebda0c63d9aaaf0U, 0xbc72af48be200393U,
  0x3e26045bbdfa0aa3U, 0xbe6e05163efe98e2U, 0x3d2c4618be76e517U, 0x3e79a1bdbdc884d3U,
  0xbc166fdc3c42be8eU, 0x3f17328b3e8d54a4U, 0x3eb3ceefbca251a5U, 0x3ea08b4d3ebda3e9U,
  0x3ca0da4dbdb3bb0aU, 0xbecebdc6be225d33U, 0xbe7e8e73be858418U, 0x3e34998e3e41705cU,
  0xbe333dcdbf66362aU, 0x3ebfde0abe4503fbU, 0xbcfbabf0bdc66230U, 0x3e01a66a3e4c0f32U,
  0x3f0c322ebdb5806cU, 0xbcda61f4beafccc2U, 0x3eda7e613ebf0ba7U, 0x3ccf9b3d3ba28007U,
  0x3eedd26a3ef642dfU, 0x3ea01b66bebf84e2U, 0xbcabe59c3d44b85fU, 0xbaf59c733cc81b0bU,
  0x3eca4427bebb2823U, 0x3d7d0f683ee077baU, 0xbf00c0c23b97ac1bU, 0x3ec49489bed88b90U,
  0x3c83b87bbefae631U, 0x3ea40477befc1664U, 0xbed22be6bf0fe98fU, 0xbdcc52da3ea5b840U,
  0x3e07a2e33e8d408fU, 0xbd60ff523e8ba667U, 0x3d8365cebeb214d3U, 0xbe407d9a3dee5521U,
  0x3d3199273e52701eU, 0xbe981b413d9febd8U, 0xbeb8ecc5be95d1e4U, 0x3f1538cdbe2378c3U,
  0x3d3379a2be015b8aU, 0xbde4ab4f3ed6133bU, 0xbd850cfa3ea1b37bU, 0xbe522f173e9326cdU,
  0xbf25bdf3be5ef103U, 0xbf4bd607bdc48beeU, 0x3e7cbebabee8f2a7U, 0xbc04a7eb3e973c67U,
  0xbd9e08d9bc8046d7U, 0x3e64d555be321335U, 0xbb15cd7fbe1e8efbU, 0x3f2d6d10bf25347bU,
  0xbea71456bea593caU, 0xbeafebddbde28370U, 0x3d34eaae3ec9513eU, 0x3e2613d6bd0ec3b8U,
  0xbea96cfcbc88c615U, 0xbd503226bc7d4710U, 0xbdb427cb3ea432e9U, 0x3ea4df12bd6490b3U,
  0xbe999d6ebce2094cU, 0xbe24a4e5be35aab3U, 0xbea1f2d53e6deeb3U, 0x3e36120abefa1807U,
  0xbe9bd64ebea7bd36U, 0x3e5afcb43f1091bdU, 0xbedb8dda3d64f2dfU, 0x3d133f933e42046aU,
  0x3e9795263bbc5b05U, 0xbeebaf523ddba34fU, 0x3f2d6ee0be58796aU, 0x3d3ae08dbe60bcb5U,
  0x3e2c2f593e74ae8bU, 0xbf6b5b683f21052eU, 0x3e4539933e3862c6U, 0x3e7c03ff3e957e3aU,
  0x3e178383bdeb124aU, 0x3c1e7cedbe0538e4U, 0xbe99d457bde2dfefU, 0x3e08a8543e4006d8U,
  0xbe614ec43d32e98fU, 0x3e576f3a3f0f71baU, 0x3d3f5cf4be5d2b33U, 0xbeb34b45bea45e7fU,
  0x3f4d55683ea89322U, 0xbd8a0bbe3d431327U, 0xbf1088f6bd51691cU, 0xbe05ff55bdb1eecfU,
  0xbed949fdbc91bc17U, 0x3e7796f73dca83f9U, 0x3e7929853cfcd640U, 0xbe98b7f73a1befbbU,
  0xbeb210a53eb155e7U, 0x3e3566843e08cc47U, 0x3df12f9ebd171c53U, 0xbe79c158be48ccefU,
  0x3ca249f63dc72066U, 0x3ed7e74f3e20bdeaU, 0x3eb71730bda299a7U, 0x3e1a8061beb1d523U,
  0x3e2f17f53db74df3U, 0xbf39f04a3e44398aU, 0x3eb1f434be4c9feaU, 0xbe5d9dadbdc090fbU,
  0xbe997a013d165376U, 0x3e29b01cbe806bfaU, 0xbd3489e83e034985U, 0xbdd2cea3bea0827cU,
  0xbebbe1f3be313c24U, 0xbe90dfe03d8c5b44U, 0xbeb71dee3d7c62a4U, 0x3da416ddbf1625a2U,
  0x3de42a9e3d815c70U, 0x3dad0222bd13f708U, 0x3e501615be339a59U, 0x3dd3ea0a3d24f684U,
  0x3d1b0e9cbddc63cdU, 0xbd1945c4bd43efa0U, 0xbbf3a4c03d9cf8eaU, 0xbe3c2f2c3df8c01aU,
  0xbe19c9b33d567ca4U, 0x3e2d12f3be0c3975U, 0x3d8d5d863cf54830U, 0x3d267b94be1c9472U,
  0xbd5e63e83dd7aadaU, 0xbe051301bdad72faU, 0x3e8bf4903d84598eU, 0xbe3dcc75bdd4da8aU,
  0x3ef2c0583e470e9aU, 0x3c71ab77be0b95a0U, 0xbeab136dbd9d7eabU, 0x3e746e573c11d902U,
  0x3d872b9c3e2c8f82U, 0xbe913b1a3f0e4656U, 0x3ef00d2dbe4261c6U, 0xbe1200893f27ba5eU,
  0xbe9d55933e3bca85U, 0x3df16264beb09e91U, 0xbdfc19933e968099U, 0x3e8d00c63e07d3ceU,
  0x3eb86bbdbeec24ffU, 0xbd92db923e1bbdf9U, 0x3df1ce4abdf4919bU, 0x3d0d994abd404d52U,
  0xbdc171aa3e85c67cU, 0x3dc2289e3e8998e1U, 0xbea6e477beef72b4U, 0x3db301a9be260f2aU,
  0x3dffc1e33dae2482U, 0x3c99b3773db026eaU, 0x3e345a36bd4960f1U, 0x3e3e41ba3e3fc657U,
  0x3dc5ef423d326fdfU, 0xbe6de07b3e26b508U, 0xbd8c06dd3d2634f1U, 0x3d92227cbe25ed0dU,
  0x3ecc06d43d82c467U, 0x3e2ba6bf3e43ca07U, 0x3c8f624bbe4907adU, 0x3bbb801dbd799ae3U,
  0x3e1270783cd11f6aU, 0x3e524f593e2c0cb0U, 0x3e9f37443e420c7bU, 0x3e10b53d3e80d179U,
  0x3e20c813bf072ac8U, 0x3e1af3f4bd24d983U, 0xbf0c2e4abeef8df3U, 0x3dc2060f3cc7eb49U,
  0xbe4ff4d13ece3a17U, 0xbe1316bcbd4ee5ecU, 0x3e16b18ebf19fd89U, 0x3dc084b9bf0c2da4U,
  0xbe2713313db68abeU, 0x3e3fed31bf051332U, 0x3dac6b0cbe34ce3fU, 0x3d15f24e3ed9249dU,
  0xbef2b21a3ea4a335U, 0xbcd72494bdff6b10U, 0xbc65b7183d5121dfU, 0xbec7f8b53e3e15d0U,
  0x3e77463b3ea0e3f2U, 0x3e13ba153e7e0477U, 0x3db267a43dc5785eU, 0xbdc018213e9f60feU,
  0x3d66a3653d17b290U, 0x3e1cdd4c3de99c5dU, 0xbda858b5bdbd2040U, 0x3e964dc4be0471a0U,
  0x3eb5c242be1c5d8cU, 0x3d3acc3d3ce2f4e2U, 0xbe54e888befdbbf7U, 0x3e1b10f4be907786U,
  0x3e009df53e2c68f8U, 0xbce2d3eabdbcff55U, 0x3ebc2349be2e29c9U, 0xbf4c61b23f03ba58U,
  0x3f6c7598becfb751U, 0x3d529634beb310beU, 0x3e9540cc3e2edfc6U, 0xbeb55c303e26c7f7U,
  0xbed6e8123ef1c759U, 0xbe224a9cbf13172fU, 0xbf2aaf993e1217a5U, 0xbeb789c33cda7a15U,
  0x3e61f0d63cc2aa51U, 0x3d96ecefbe5ae6b8U, 0x3f13a8be3e96960bU, 0xbd2040213ec7f252U,
  0xbe539145be6ccad8U, 0x3b0807b13df69389U, 0xbd57d1de3d8dd8ddU, 0xbe81706d3eb51974U,
  0x3ed7c227be8c3644U, 0x3f394487be87beeaU, 0x3e85c33dbf2d5c7dU, 0x3e0f56f2be6971afU,
  0x3c129fe3bd4879edU, 0xbe6ec1963e74d715U, 0x3efcd1913e4100bfU, 0xbea0b316bc694f91U,
  0x3deb53133ccdc8dbU, 0x3cd4dd633aece296U, 0x3eb2e39e3e779fd1U, 0xbd9bc4ecbeaef821U,
  0xbdc48587be710b67U, 0x3d2421db3d1be908U, 0x3dc3d6bd3e916202U, 0xbf366352bece4df4U,
  0x3e53c7d8bed3b740U, 0x3e9d55643e8ab95fU, 0xbd85c6fc3ca4316cU, 0xbdc163a8bdef0926U,
  0x3e766c5dbe5a91daU, 0x3e9449a5bf0fd623U, 0xbd30f6653d68ac12U, 0xbddca9df3d0461b1U,
  0xbbcceb403e3fe946U, 0x3e8869ad3f177c97U, 0xbd0b06b53e759032U, 0xbcca12ff3ec12347U,
  0xbf04ba28be81b9bbU, 0xbec0a5383ec95042U, 0xbe8be1973eba949eU, 0x3d348ee63c979c2aU,
  0x3e2e37f9beed42e5U, 0xbd89350e3dc74da6U, 0x3f0547a93e7e52a2U, 0xbf05fee0bed1db56U,
  0x3e2d2cbcbe0a6067U, 0x3d394fb43e5da9bdU, 0x3e40ccb5bd84ca06U, 0xbe87d11dbda78c2eU,
  0x3eb13969bd81e0f0U, 0x3eea269e3e5c1142U, 0x3debd4153d1c36bbU, 0x3e0653d93ed411a5U,
  0x3dabf7d53e156ebfU, 0xbaea42f0be8518a9U, 0xbed8263ebe3070e7U, 0x3f5bc9d33e1dd358U,
  0xbe80ed4f3e931f1fU, 0xb94f79de3ee9c475U, 0xbe4662653d2f19dfU, 0xbdbf728f3ee56004U,
  0x3def68e6be32d66dU, 0x3f1d9ba43d3acbd3U, 0xbe8b224a3eaf5214U, 0x3d666febbe9e757dU,
  0xbad3b103bf00ceb2U, 0xbe9b8112bd4a7a37U, 0x3e83f7a53e5fe58bU, 0x3ede7c713d5ad336U,
  0x3e4d25503df3fcfeU, 0x3f52c300bed2558eU, 0xbdcf52c4be680aefU, 0x3d183ddf3e3e6803U,
  0xbec8da503c1c5917U, 0x3e8306ff3df23a30U, 0xbf2fe92d3f2a40d1U, 0x3ec2c1bf3ebda35bU,
  0xbe77b4d93df94544U, 0xbe21787e3f1f6bb4U, 0x3e7cccf3be462455U, 0xbd14f1c23d7c28eaU,
  0x3e8a9e723e3c386eU, 0xbf29d576be9df3c7U, 0x3e8bd4d43deaaae4U, 0x3eb7e98abe64ad1cU,
  0x3e2e2e393e1af18cU, 0x3f14d39a3deca957U, 0xbec519643d127b03U, 0xbf14bebcbd977a17U,
  0x3e9ffffbbe91142fU, 0x3e5146c5bd864a55U, 0x3ee327c4be59900dU, 0xbdea5412bcc9f318U,
  0x3e577d1b3e0132f1U, 0xbddb8d213cfaccd8U, 0xbd7ab534bcf148a8U, 0xbdc65a293e370019U,
  0xbd0526303e1ce267U, 0xbe2c4db1bdb7aaf2U, 0xbd3ce278be15c1deU, 0x3d2e89943db67fa2U,
  0xbe37567f3d051264U, 0xbe0d64aa3daf81a6U, 0xbe3c3b61be4568cfU, 0xbdbd72ee3cb49ec0U,
  0x3e67fd263c59f525U, 0xbd74bd2d3e9dcf75U, 0x3eb699cabe62aec8U, 0xbe8fad5cbeb4c1f6U,
  0xbbcb75f13ef92c99U, 0x3e95c652bdc4b138U, 0x3d9be14dbdb7b211U, 0x3e8bb47e3ceaf929U,
  0xbb2fc8913d39dfd8U, 0xbe4abacc3e8b1e21U, 0xbdce4154beef67d7U, 0x3eb5fba63eb73e5eU,
  0x3e62e374bec511e1U, 0xbe222a47bdcfcd46U, 0xbe9b2b2fbe0b6b19U, 0xbe82456b3e891913U,
  0xbe9f3c043ea23b5eU, 0x3e92f1013d3ea8e2U, 0x3dd39b83be552369U, 0x3e0b0ca0befb3298U,
  0x3e747df0be8f976aU, 0xbca4dfebbdbcd8dcU, 0xbdc61a3b3def3f0dU, 0xbd9c1aaabe08e773U,
  0xbdc29eefbedeaa14U, 0xbe5becbd3e030fc2U, 0x3d819b1abd1039d0U, 0xbd3d4ceebe25ecd4U,
  0x3ebae12fbf006eeeU, 0xbcf59d463e8b5252U, 0x3e3d9f893ee84e6aU, 0x3eb2dacfbe92a570U,
  0xbd10d441bf236169U, 0x3ea47f663eed00ecU, 0xbe6d8d5ebf0c5d53U, 0xbea4592d3f19252cU,
  0x3ea82105bc2d1840U, 0xbe2301f13f19fdceU, 0xbf120b043d96bd17U, 0x3e1b77303c9a9c62U,
  0x3e19de93be820f84U, 0x3eb388e63e1586e9U, 0xbe022a343edbebdeU, 0x3e398e9a3d48979aU,
  0x3f0f285c3df59852U, 0x3d8e4c2dbd33dcb5U, 0x3dcd0f1e3e099d23U, 0xbe902ffe3e82f6f7U,
  0x3e4695ed3e69148bU, 0x3d136996bd46906eU, 0xbdafc68c3f227d35U, 0x3e19db96be3c836dU,
  0x3cb9fc1cbddfc626U, 0xbee6f9503e571c3cU, 0x3c6bae82be56cae1U, 0xbe26389cbe91b2caU,
  0x3e93dd303eb6e2adU, 0x3ee693e1bcbfbb71U, 0x3e31fb65bea28ea6U, 0x3e35142d3b7ee5f7U,
  0x3ec895ea3dedccc2U, 0xbe326e81bdcc1af5U, 0xba84f5593daaf371U, 0xbf012d353e19edeaU,
  0xbe4875e63ebaf3cdU, 0x3ed276f6be24d902U, 0x3db0b7733e4c43fdU, 0xbe04e12cbd921447U,
  0xbe4e36aa3e9c82f7U, 0x3e1759213e7a7b05U, 0xbf3b0cc53d925081U, 0x3e46c03e3e0d8f8dU,
  0xbebf6b17bea2db49U, 0xbd89a63fbdf47f8eU, 0x3f31aff03e89ca7bU, 0x3bba25d63ea724afU,
  0x3e95670ebea92f6fU, 0xbe2a53e5be1eae3bU, 0xbdff517fbe6e5c37U, 0x3ed137f13e90199aU,
  0x3e8ac445be425854U, 0xbe18f3593edb27a1U, 0xbad9b0a53f3bf03fU, 0x3dd163babecce122U,
  0x3d57f1cfbec67995U, 0xbe3a681b3ee7a17aU, 0xbeca1e953dccc99aU, 0x3e4a752a3f635ba9U,
  0x3edfceb73ea8853bU, 0x3df8a0e43f06d8aeU, 0xbec607883dba6487U, 0xbe62adc43d1d24dfU,
  0xbe945e6b3d134452U, 0x3b8b73cd3d4b2e93U, 0xbed026113e948bd1U, 0xbf11ee3a3e63c0b4U,
  0x3f07be22be9f152fU, 0x3d595ddfbe498288U, 0x3db5c6f4be70c9f8U, 0xbd08d023be7d8242U,
  0xbe8af8523db78628U, 0xbe19e577bd99d323U, 0xbede7673be93ae26U, 0xbec9af633ea6f936U,
  0x3e0de44bbea782feU, 0x3e16c3b0bd870f7eU, 0x3da041ca3e5f49f9U, 0x3ef551303eca5c69U,
  0x3f2bd74e3da68729U, 0x3cb11fd7bd941900U, 0xbde0ffbc3f017203U, 0xbdfb3844bd30ec26U,
  0xbe80e34fbe216ce8U, 0xbf0808203e13150fU, 0xbd63884b3daa8aadU, 0xbe485916be97a264U,
  0xbec7ebc7bdbaca84U, 0x3ef48283bd82ee16U, 0xbeb1e1fa3f0a9cabU, 0x3de2aac43e5e4b48U,
  0xbf099b453f042427U, 0x3d0174c73f0b0df3U, 0x3e757f2d3da181afU, 0x3d215dd3be58db96U,
  0x3e5a2fdb3efba6afU, 0x3e389b91bd8f0678U, 0x3e0c9a3ebd05b241U, 0x3bfc417bbe090691U,
  0xbea27be83e34dbedU, 0xbdf411c2bf2b701aU, 0x3dece0323e144718U, 0xbf0c8cd1be010396U,
  0xbd1fef9dbd0f49c2U, 0x3edbca22be9c1685U, 0xbf160d8b3e8f9476U, 0x3d02e638be2083f3U,
  0xbe02103fbe58d34bU, 0x3e4847a73d4beb41U, 0xbeaa10063d4e3c1aU, 0x3db08540be554189U,
  0x3d7f19f6be070262U, 0x3f0e4bbdbde909bcU, 0xbe17a481be4e3201U, 0x3d36f4c4bd326bc8U,
  0x3e59a8a03e948a37U, 0x3e09b13bbe608809U, 0x3e5fa26d3f17fad3U, 0x3f3b968cbd26961eU,
  0xbe6e8af2be952df6U, 0x3b5519d33f4b7835U, 0x3d1e01cdbf13f892U, 0x3c36f47bbed7e85dU,
  0x3e932535bda6d2ecU, 0xbe95f1683e735dd1U, 0x3dd434833f4e5b97U, 0x3d63ff1a3e50325fU,
  0xbd3889f3be19d069U, 0x3f1e297abe9fb1ddU, 0x3e54dc7abe0d27dcU, 0x3ec1401d3ed9ddc3U,
  0x3d969c07bf04996dU, 0xbdc07a713e81ebbdU, 0x3ded0b173ed54cf2U, 0xbe5a22bc3c860a67U,
  0xbe5200a23e597c7cU, 0x3e3bfbe0bdd77264U, 0x3f230a073eb4a5bfU, 0xbe55bd103e4be294U,
  0x3f598769bec778d6U, 0xbd5a7c493dabd460U, 0xbe796e793eb5f3cbU, 0xbed9068e3dc77fd6U,
  0x3ee423cd3ea54758U, 0x3f2c11aabecb0f3aU, 0xbe676686bc102e48U, 0xbbd538ec3f18a22cU,
  0xbe139f60bc1289c1U, 0x3c6eadec3d46da64U, 0xbbd5ffbebea4478dU, 0xbe0db3b43e92a7a5U,
  0x3d993cb1be6ffabdU, 0x3dc08e46be08fd48U, 0xbefa73983d49ba8cU, 0xbeeec026bc46bb7aU,
  0x3e695db5bd65928aU, 0x3d943f94be83c385U, 0x3e6d41b3beacb3d4U, 0xbe1a5a573e03e262U,
  0x3db9579a3e5556f7U, 0xbe654b543df0dee1U, 0x3e4aa9843e1ac53aU, 0x3f04d120be1c1604U,
  0x3e9b52b23e2e68d4U, 0x3e950a2bbe2c40faU, 0xbdee5966be02d576U, 0x3ddfb0ff3e54cdb2U,
  0xbd96f0053ea05c46U, 0x3e57c05abe077b7cU, 0xbf1fa7fd3e879fefU, 0x3f29f9f73eabf4b6U,
  0x3d658855be9149baU, 0xbe1c3c26bc98ace9U, 0xbe34e3f0bbd4f82cU, 0x3e107d583d911969U,
  0xbed55a46bea12c83U, 0xbef3e888bdd899d7U, 0xbebf75683de4baf1U, 0x3ce404a73ddf4640U,
  0x3dc1615b3bb7508bU, 0x3e439debbe717b87U, 0xbe93d7ddbc98fa93U, 0xbe511e043f127248U,
  0x3d5ccb01bdad3d6cU, 0x3dc978d2be39e64cU, 0x3df3cc3fbde511f8U, 0xbf05892d3e3e2e0fU,
  0x3e97b50ebe80c948U, 0xbb817538be52a987U, 0xbed5457d3c9f9c3dU, 0xbe8bc9313e28653eU,
  0x3e2ee0a53e68a493U, 0x3c61da8fbe0e2d8eU, 0xbde25d1e3e9ce02dU, 0x3cd8c809be0272b3U,
  0xbd08e6a1befb48a4U, 0x3e04be94bebf556aU, 0xbe6cca01bdfabe80U, 0x3dc021cdbcfef038U,
  0x3e895cf43e47c5a2U, 0xbddef818beba236cU, 0xbbcfb4c5beb22df6U, 0xbe6231403cfee6fbU,
  0xbc8cf5223e0599eaU, 0xbe531b6abe6e12cbU, 0xbd527ad8bdc021d1U, 0x3e821988be877310U,
  0xbd8be3bbbe21b02fU, 0x3df660083eaa8cbbU, 0x3e88b2b93c5c98c1U, 0xbe5665123f39fca0U,
  0x3dc81ffa3c762c4aU, 0x3f07e1903d9e6132U, 0x3eaeecab3ea6fea2U, 0xbf091b00be47aa81U,
  0xbf1106d1becf7e68U, 0x3e9637383e70b08dU, 0x3e06e5dd3f53caa5U, 0xbb00ecae3c1b2698U,
  0x3e372e843d9db0ccU, 0x3e5f68f23d185d4eU, 0xbe49e6163eb27a5dU, 0xbd0ba56fbdac065fU,
  0x3d1a8ac13e3a85a8U, 0x3dbf25813beb82c0U, 0x3ca9b7d1bd8c6960U, 0xbdfbb54bbea78f60U,
  0x3deb6b42bc9fa14cU, 0xbe04e49fbf29985fU, 0xbef3c7a4bda57706U, 0x3e5a13f53ddee0c6U,
  0xbd8b92a63de71c3dU, 0x3ea94dc03d79955aU, 0x3eaf1a0f3d81218eU, 0xbd381c0dbe737a3fU,
  0xbe89f5ef3d87e29bU, 0xbd8be4d93e7383fbU, 0x3d207d933ea72d0aU, 0x3cd22a993e1b9fa8U,
  0x3f08fdc3be71bebcU, 0x3d1ba6893ee2de4aU, 0xbf2784fa3dc8335fU, 0x3d69965abdb4da59U,
  0xbeb250c63f02e400U, 0x3e1968fc3e5d86b9U, 0xbe8479a53d9f8220U, 0x3e4e398a3e29ff3fU,
  0x3ee2c146be3f70a1U, 0xbf1343c1be4cd1b1U, 0xbcc48d72be511a9fU, 0xbdae00d03d8ce2f2U,
  0xbdfd34c93d8851f6U, 0x3d4d93a43dfb7f95U, 0x3f0b9bbd3dfb0f2bU, 0x3d30491e3e3ca7caU,
  0x3c288b693e734eafU, 0x3ec9a7253e068f01U, 0xbf11486cbe92d09bU, 0xbeb454503e951f00U,
  0x3dd9b2a1bec8e9feU, 0x3d5d660ebe76de8cU, 0xbd5d6b393d17fb36U, 0x3ec07d61bd940830U,
  0xbcc9aa3dbf342fb0U, 0x3e2500f23e7f5479U, 0x3e5ce9dbbeafee74U, 0x3dad41d43d975a5eU,
  0x3ea5a0c63c097531U, 0x3e9bf4783dcb617fU, 0xbe4a8e2d3efe1042U, 0x3e99ba133e10a0cdU,
  0xbdc4e5a5be2d8292U, 0x3d812a093df15f3dU, 0x3b5b490f3e8c4a8dU, 0xbeb525893c6c6609U,
  0x3e9594c7be365809U, 0x3d0ccc28be864916U, 0xbe765b5dbeee4bc7U, 0x3dff9c10bd8617f5U,
  0x3eb54ea93eac0d9eU, 0xbe8a90bf3e31185aU, 0x3da964dbbdcd42daU, 0x3ec81d633e9c197fU,
  0x3dfe5decbe92ed7eU, 0x3e07d2343e5cda02U, 0xbee3ff273e95fce1U, 0x3e8199983e37a024U,
  0x3c119cc73f21e368U, 0x3d33b4883da02153U, 0xbdba5d603e934308U, 0x3e3001513e999cd1U,
  0x3d6a22e53e656416U, 0xbe9f4639bd3ef829U, 0xbebeef7d3f087b9aU, 0x3f1255b8beed27e6U,
  0xbf138631bd37d485U, 0x3e9afa4dbe2d3b03U, 0x3f22f5733e7ba289U, 0xbec126053eb04ba2U,
  0xbd81033fbe4d9083U, 0xbeacb343bc122c7eU, 0xbe1344b43de28981U, 0x3ddd75383d252b2cU,
  0xbee66e3c3e31777cU, 0x3e8aa3763dd84abcU, 0x3ca16a243f1f516eU, 0xbef43e7f3e978870U,
  0x3e9099bbbecf7c56U, 0x3e723a1abebb279aU, 0x3e15eba93d1de1c1U, 0x3d6406143d91e163U,
  0x3db124bbbca54955U, 0xbdbadf38be0d7434U, 0xbe73370f3d7eb848U, 0xbe958ea63e0c14d3U,
  0x3cf167593e989e6dU, 0x3ec6510bbc4f9885U, 0x3ea4af9c3e7fdbbaU, 0xbe0b1895bcc2b4dcU,
  0xbf2604e6beaebb4eU, 0x3e93034ebec9e2a7U, 0xbd3cf5243ea0d80aU, 0x3dbdd620bd01f1b6U,
  0x3d0f9ed73e0482e7U, 0xbe9ef7273d2c86feU, 0xbeaba3a5bec656d2U, 0x3ec89fc3bebfcf06U,
  0xbe344de8bec1a9a7U, 0x3d9c407c3e3a4150U, 0xbe48dc93be80c1b5U, 0x3ecceae4bf24b34cU,
  0x3d075a393c1c8b67U, 0xbe84eae83d051f24U, 0x3d6fb7c4be9eb874U, 0x3eafda9e3d9c03cfU,
  0xbe63a35dbd3574eeU, 0xbd3b6e913e2c6ef2U, 0x3ee93008be19cd5fU, 0xbe81b2d83e9f58b2U,
  0xbe858ad63e746725U, 0xbf262db0be7521bfU, 0xbd4cbc90be0e7c77U, 0xbd48ce983e981ad1U,
  0xbeef17283e41aae7U, 0x3d86315bbdf45491U, 0x3ee7cd4abf199f4fU, 0xbe95bb963e260eeeU,
  0xbf127c19be8f6bb6U, 0x3e9bcbd8bd0d1fd3U, 0xbdcd51df3e833934U, 0xbdf6b3ba3cf1964bU,
  0xbe14f2d23e2dbba5U, 0x3e2e8c1ebe66f18dU, 0x3e9c72d5be20c339U, 0x3db1fb1f3ec0dc06U,
  0xbe43c95bbba3b139U, 0x3ea12f9a3dc2f46bU, 0x3e1e8aadbe699f42U, 0xbf47bf173d7deb9cU,
  0xbea14a81bdaf1a73U, 0x3d988b2e3d155ad1U, 0x3e1fa12c3e286cf0U, 0x3e9c4bb5bed86160U,
  0xbed7e4b23e04744eU, 0x3db8fa4ebf3910d7U, 0xbdf2f200be7e85a2U, 0x3dc9d8aebe5198cfU,
  0xbe1483483e8cbc78U, 0x3e72146c3e46a2a7U, 0x3d0b44f43f041facU, 0x3be94dd0be84e3b5U,
  0xbf138533bd163ea5U, 0x3ed784cabd62412eU, 0xbe5f8b13be81cc34U, 0x3ed1742f3d9442eeU,
  0xbeac47d03e305d36U, 0xbeb250933e4b7f4bU, 0xbe993ab8bf0d6eaeU, 0x3dad031ebf20c6efU,
  0xbe7561c9be882628U, 0xbe19f1e23e835ddeU, 0xbe82859f3df510f4U, 0xbe05ac92bf1a8c66U,
  0x3e67bd7b3c8649b2U, 0x3f233badbe2b6027U, 0xbdf6810dbe077562U, 0xbe28e088be1e31bcU,
  0xbdf2a25cbb4f5840U, 0x3d912126bd5a30b0U, 0xbcade390bcaef0a0U, 0x3e358fdb3e15b9cbU,
  0xbdcf01dc3b59f480U, 0x3e414fd3be1abbe5U, 0xbe1db96ebd89878cU, 0x3de1acd63e31bba9U,
  0x3e547687be0b2fcaU, 0x3b020b40bd24390cU, 0x3d5c98643e0e7ac7U, 0xbdf1f7c53d83851eU,
  0xbbe314c0be3f25c4U, 0x3e8231e03e20aa9bU, 0xbda79f063e7cda00U, 0x3ebeb871bf039c60U,
  0x3ec04cc93e3f0b83U, 0xbe5f9a33bdcf8fb2U, 0xbd7db7bbbebca605U, 0xbe376c10bdba3682U,
  0x3e8858fcbeb05ac1U, 0xbd0c89b03d2c7a19U, 0xbed900a03db2e2b4U, 0xbe991eb4bdb3270aU,
  0x3d677326bf05451bU, 0x3ea7f9573c3fdc74U, 0xbec5ae953e0303dbU, 0xbf0207e73e1259bdU,
  0x3f081a113d4dd631U, 0xbe268c67bd387b27U, 0xbef9c14c3d0ed8a4U, 0xbf2034c23ee8acd8U,
  0xbde7ae353c77b671U, 0x3e15dea43e701879U, 0x3d0a38b6be6b148aU, 0xbd795995be283203U,
  0x3dc85027bef4878aU, 0x3e5c6668bd7b48d1U, 0xbe004d203ea5ebc6U, 0x3e70f97bbe4076f9U,
  0xbd1af7afbe0dd03cU, 0x3de8dfad3df9c6fdU, 0xbe81cb17bd24f1f0U, 0x3e4da6243e270162U,
  0x3d3a8bedbe0a640cU, 0xbe4b4030bddbe026U, 0x3de665a63e06203bU, 0x3d3fd09bbe0e9e8eU,
  0x3d7fb0513e3c4714U, 0xbe2f67e03d14677dU, 0xbe2062cc3dfd1c9dU, 0xbdc9488bbe04e2d9U,
  0x3e84f6013d7f0de2U, 0x3e13b3a7bef34c22U, 0xbe89d697bc50f617U, 0xbd24964f3eed5f9bU,
  0x3e254dd1be81ed20U, 0x3efc7da73e0eb2fdU, 0xbd67144cbe8e43e2U, 0x3ebaa368be31cb6eU,
  0xbeb5bf16bd855fb3U, 0xbd06a84d3d144bc2U, 0xbd8043f4bde1e69aU, 0xbe50eb42bcb83694U,
  0xbe80972b3ee102f0U, 0x3e0f44b43d8fc97eU, 0x3e796d52be2be482U, 0xbd86486ebd29ae31U,
  0xbefc9707bdd30018U, 0x3e80bd803e0f4744U, 0xbe2775ff3e13a7d5U, 0x3dba18eabd92aa91U,
  0xbd8b0cc9bd9362a2U, 0xbe2159d23e3a774fU, 0xbe24e1dd3dfac72aU, 0x3e6df673bea33b21U,
  0x3e5b9a5e3c1342c5U, 0x3e9626293deaa379U, 0xbd3162ba3d189b20U, 0xbef081213ea5c81dU,
  0x3e14a59bbe86fe32U, 0xbea6a8d83dd02673U, 0xbe390b3bbd9ec973U, 0x3bb8d78fbd139107U,
  0xbbbd93323f1554cfU, 0xbc4c8c8d3d0ff801U, 0xbe0054ebbf2c3964U, 0xbe8b77d53e17f146U,
  0x3d6110ce3d940cc1U, 0x3e22fb9ebe98a996U, 0x3df28b3ebd6b72d0U, 0xbea96d523dc00892U,
  0x3eaab49fbe6abd0bU, 0xbe5a9976bda8e741U, 0x3e7afc9cbe85b327U, 0xbd3ff8333e101a59U,
  0x3e1e4d51bea675f7U, 0x3d0779bdbe89d00cU, 0xbee8c542be596263U, 0x3e73b433be9ce5faU,
  0x3ea92fc83d772e9aU, 0xbec9084d3e3b1121U, 0x3bc418b8be91190dU, 0xbde33940beb110edU,
  0x3db831c3bdb72354U, 0xbdd13227bd999f10U, 0x3e0d34dbbdd153e4U, 0xbea445be3eff0463U,
  0x3dce1e063eb9b37eU, 0x3eafcd2abaaa84e3U, 0x3e1ae6213ece7378U, 0xbdfac09dbf0c8304U,
  0x3e3b815b3e3f3958U, 0x3d043864bec308eaU, 0xbeb00d36be52b178U, 0x3c312fbcbe8af6a3U,
  0x3e7995febd4c818fU, 0x3ee84977bd45f23aU, 0x3cb8a219be155ff3U, 0xbf075059bccfd518U,
  0x3ea074bc3de87632U, 0x3ce662ac3df410f7U, 0xbec924103dc2959eU, 0x3ddab5abbdf8cb0bU,
  0xbdb9e2ba3d54f172U, 0x3e7e3aadbdae73bbU, 0x3e2863a0be553adbU, 0xbd43b4f93ea334c4U,
  0x3da5251ebd5535a9U, 0x3cdfc2f13e36ca67U, 0x3e83ba663d86171eU, 0x3ebc1aa0bd1a3af2U,
  0x3e98f69bbe5b21abU, 0x3f0948a83d8f6b14U, 0xbdf5a9a1bd39836bU, 0xbe9b26acbad59c59U,
  0xbdb27a283e5fb6b1U, 0x3c28df1d3eb6f3f9U, 0xbf13afb53f059b53U, 0xbe7212ee3ec15f3bU,
  0x3f25c7f13f2c91a4U, 0x3e478210be51a00bU, 0xbdd701b33e8addc5U, 0x3e047d59bc71222cU,
  0x3e473da3bc96c40cU, 0xbd2cd943bd2afb56U, 0xbe0aef1a3e525251U, 0x3d5360503e122865U,
  0x3c8487623dc7b18eU, 0x3e1c88f03eb92258U, 0xbd7a36e3be57104cU, 0x3ea6e9ed3e079b8bU,
  0xbee0d140be3c27e6U, 0xbf08db43bb9af7eeU, 0x3d017c483e978954U, 0xbe6521da3ef22f5bU,
  0xbe4e38c8bd373659U, 0x3eafe1e73e9b7badU, 0xbd18490b3e8f62a7U, 0x3ea143a23c2ba589U,
  0x3e2c3f68beb9d5c5U, 0xbe92080f3e6b2112U, 0x3e047eee3f1abaf0U, 0xbe2cc4f03e8dc8c4U,
  0xbc303d90bd415c2fU, 0xbe4a1bd7bebc0d07U, 0xbe1992a23e543279U, 0x3e4c6e573d9fc174U,
  0x3e568aebbd827bc7U, 0xbe320aa5bdc7423dU, 0x3de7303cbc90d4c1U, 0x3de7e3203dc8e932U,
  0x3f5738ecbdbe808fU, 0xbec9d5a7bcc8ec6dU, 0xbef3b90b3dd100a3U, 0x3dbd85ac3e4ef13dU,
  0xbe8709633e15f321U, 0x3dc9963abaab7222U, 0x3e1ac349bed54b93U, 0xbe2b66023f17c538U,
  0x3e6e73c8bde2a965U, 0xbe0d69d2bf096878U, 0xbe374f3d3d17a6bcU, 0xbef5612d3ce2add2U,
  0x3e124c183ed69c76U, 0x3c1fa3b53f048e9fU, 0xbed0f5f43f0de849U, 0x3eae57e8be91f742U,
  0x3d331bfa3dd0e3e5U, 0xbd4dd4d93bc43c5cU, 0x3e14c201bf13ab92U, 0x3ed1f118bd8185e0U,
  0x3ea35d2abe1bb3d3U, 0xbe43c1a9be57245eU, 0x3ea98a83bde7f7dbU, 0xbecd6c5abd80d20eU,
  0xbec3a7d4bd56e006U, 0xbeb5b4eebe411449U, 0x3c1de680bf110209U, 0x3ed2afa8bd9a2bb6U,
  0xbe95f2693e10b626U, 0x3d8731aa3e879a56U, 0x3e5d36a63e47361aU, 0x3e8171503e7b0c48U,
  0xbe3c821ebedfe6d1U, 0xbedbd5e2bef09c9bU, 0x3e9f799b3dcd3090U, 0xbeaddd03bef7020cU,
  0xbe057d1c3d42c704U, 0x3e57b839bd021548U, 0xbf103fc83e748d46U, 0x3ed3526d3d46d135U,
  0x3e44239d3e49c0a6U, 0xbd4075d73ed6e0f5U, 0x3d903e2abe36c6daU, 0x3e857c6dbe28f921U,
  0xbe4f73a13ead8093U, 0x3b87a2b0bdb7aeddU, 0x3d7d14793e3d086dU, 0x3ec82474be773fd2U,
  0x3e661a6bbf2c0e1aU, 0xbe21c4583dc721bfU, 0x3e9015aa3e527085U, 0xbe0eb26bbeab1cdeU,
  0x3e22a6cb3f16da17U, 0x3ec63550bec8a4a5U, 0xbe22a0c4be577bbcU, 0xbdbf3b0cbe7a5e9aU,
  0x3eaba18cbe341a83U, 0xbd163502be8de0e2U, 0x3e7d09b1bdba2c30U, 0xbd9d3032be2bd696U,
  0xbf25c7873ea8c698U, 0xbe7f27e7bf0d76faU, 0xbeb555143cbdf3daU, 0xbcfcdb033e0ab766U,
  0x3f209c4bbeae4a62U, 0x3db0b1933e87c9bbU, 0x3ec4e6c93ee5449bU, 0x3edc0cc9be5acf87U,
  0x3995469cbe61fdacU, 0x3da3c475bee57ab2U, 0xbe4ee27a3ea4b082U, 0xbed388723e68746bU,
  0x3e27b8a43d96f863U, 0xbd88f6e43f2f0708U, 0x3e3ca4923eb516e0U, 0x3e427f3bbdff74f7U,
  0x3ed234dc3f1badb7U, 0x3eda4b44bf0c569aU, 0x3e51ec00bcbd5f79U, 0x3dcad7293e980512U,
  0xbe17fbce3d72b057U, 0x3d88067abd72b539U, 0xbe51b8d63dc8e167U, 0x3d69f2fd3d6efa5aU,
  0xbf02e8213e6b60a7U, 0xbdb090fbbe32f3ceU, 0x3e8ef69dbe9340c0U, 0xbf95d9873f475f48U,
  0x3e5d75763cb11ef6U, 0xbdb42079bc637c27U, 0x3e3cb4a83e0b0c40U, 0x3d192b013d28bf50U,
  0x3d5f8c823f06f1f7U, 0x3e0ec974bee16d79U, 0x3d4f9c723e8331c4U, 0xbc64ffd0be8947b8U,
  0xbe199a04bdd59e48U, 0x3e2793d9bca8d0fdU, 0xbe4120273ea39ef9U, 0x3e9965d6be218902U,
  0x3cc0cb22beb53831U, 0x3ec4c653bd1ecd65U, 0x3ef335a93e89cff7U, 0x3de61e073e28f6e0U,
  0xbdd91b1abe6f1638U, 0x3dd48c5dbe23ba3fU, 0x3e06a3b53ead8329U, 0x3dc4cdd73e5bbdc1U,
  0xbbbd0205bea1685eU, 0xbd85296a3f2004c7U, 0xbe2ff2523e05455cU, 0xbf06f8173e305103U,
  0x3d99c1fc3eb3f4b1U, 0xbd2c822f3effa53dU, 0xbe50a4c4bd2f9788U, 0x3e2d828ebda82097U,
  0xbd377f9dbde5257bU, 0x3cf3f1d8be800708U, 0x3ed6555ebdb304e9U, 0x3e4b6f543d3581d2U,
  0x3e1864493d1d839aU, 0xbe42790c3dfd0e12U, 0xbe02afc43e00e677U, 0x3ed049afbed13463U,
  0x3e39b91b3ec850c6U, 0x3eccc75b3eada770U, 0xbe2f2054beda02b0U, 0xbdfd4a59bde7ee15U,
  0x3e01bb34be16c783U, 0xbd79f3a5bb001b9cU, 0xbed85ad7be575bdaU, 0x3e29ec733d1e3fb1U,
  0xbe6eeecc3e8f236cU, 0x3e1e317ebe4d84caU, 0xbce1b2823dbdeb69U, 0xbebce47b3f0c7075U,
  0x3d9fb05c3e170ab0U, 0x3efe3383bf1a4037U, 0x3d1b0b6fbe7de4a2U, 0x3f18a91ebea29dfbU,
  0x3ee44a253df1c39aU, 0x3d6b3098bc2d56fcU, 0x3d963bc9be4716f9U, 0xbe7e1c53be84d61fU,
  0xbf3714703e2bdc24U, 0x3ec42f5cbe3c9c42U, 0xbdc34bcb3dd8cf2dU, 0x3e9cdd63bd32fe97U,
  0x3df5ead73ed8e469U, 0x3c390da8bc8b93eeU, 0xbed6bd70be43f8cbU, 0x3e4901c8bdcdac8cU,
  0xba9a24713eaa9ff5U, 0xbe64dbb13bd88360U, 0x3ec8592ebe240365U, 0xbe4481b2bca8dbc9U,
  0xbcb8c1b6bda01efcU, 0xbd7baaf33e8eda34U, 0x3eb017dbbe1949b5U, 0x3deed5bc3e69a547U,
  0x3e66d1fbbeb2e382U, 0xbdef39383e09fda6U, 0xbe4999633e48e5ebU, 0xbda42bae3eaba539U,
  0x38be6d9abe9d6630U, 0x3eeb480f3d8f4aabU, 0x3e803a1fbe2ea3d4U, 0xbd07b9453eca000eU,
  0x3d6a68a9be58b577U, 0xbe878388be938272U, 0xbd670768be904471U, 0xbea92575beec40efU,
  0x3dd5a1973f29f94aU, 0x3eee7cdf3e8636a3U, 0xbe5d40ffbea56765U, 0xbdcbf0f3bed5708eU,
  0xbeb7559a3e55c553U, 0x3ecae5e8be0bccddU, 0x3e45fd67bf20d976U, 0x3dc0e1f1be8d8529U,
  0xbeafa620bd0ba810U, 0xbd7aaf71bdd9324eU, 0xbe875f223e859e67U, 0x3e8ddc113ee91180U,
  0xbe416772be06f9a9U, 0x3d9c6689bf0bc09fU, 0x3d8ca6383ef325b8U, 0x3d726285bec4332aU,
  0x3c91d947be2aff25U, 0x3f3efc70bc80cce0U, 0xbe92d1ac3dab8ccfU, 0x3f14d3fdbe4e587aU,
};

STAI_ALIGNED(8)
const uint64_t g_network_dense_dense_bias_array[50] = {
  0xbda537cc3c5eeb37U, 0x3c844924bd8f2b93U, 0x3db2e889bd8f415aU, 0x3d14856bbd8edd6fU,
  0x0U, 0x3e12ca47bd1e288fU, 0xbd157da93de40fdeU, 0x3d9f3fda3cf4773cU,
  0x3e555e22bc5a6bffU, 0xbb8ffa70bc340989U, 0xbe047216bd9e4a54U, 0xbc4cd6e9bd7fd4e7U,
  0x3d6a3293U, 0xbd0537e33cc75979U, 0x3d65fb843d9817bbU, 0xbd551384bcc74c7bU,
  0xbd436b25bcc075a0U, 0xbe343777bd39a70bU, 0x3e73e03d3d6185d3U, 0xbb6e338fU,
  0xbd9d83b5bda1d43fU, 0xbdb46ba33d5fde49U, 0xbdc05b9abd9ae3f6U, 0xbe1dbdbdbd995038U,
  0x3ce662d13e0a740eU, 0x3d3e50783cab5776U, 0xbb63ccca3e24e565U, 0x3cf3e6213cc95fcdU,
  0xbcde3d50bd92d69eU, 0xbe81977b3d377e0fU, 0x3d774e8abe0881a1U, 0xbd119c8c3daaaa25U,
  0xbd5606543e3250c8U, 0x3e037c42bd4f4114U, 0xbdb4cd03bd6a8e8aU, 0xbb80c06ebc9f034dU,
  0x3daa882f00000000U, 0x3bc62608bd331b84U, 0xbd64576f3d57b918U, 0x3d193b50bde8c003U,
  0x3da5fd0dbce3132cU, 0xbdc52713bcc74e59U, 0x3da37671bda7a09bU, 0x3d9242cd3d9fb12cU,
  0xbddfba72bd9463aeU, 0xbce1f0f23d05bd3cU, 0xbd68cf99bdb7d8ddU, 0x3dc8866cbb0dee58U,
  0xbd34b13a3ae2ac5aU, 0x3c5c33333a8fa3f0U,
};

STAI_ALIGNED(8)
const uint64_t g_network_dense_1_dense_weights_array[5000] = {
  0xbe1a9c2d3e87288fU, 0x3d2b7fdcbd916639U, 0xbe1eb4223e9627f6U, 0x3dc0ac0ebf03c647U,
  0xbdaad2e23d6738a8U, 0xbe6bb3283e7c54e6U, 0x3de74dd3be871fe1U, 0x3e700b57bec92849U,
  0x3cb54199bd820752U, 0xbca3d5393eabb956U, 0x3e0f9da93e5547b7U, 0x3a6f230fbe928a40U,
  0x3c91e7c03eaaa03dU, 0xbbddf8b3beae33f7U, 0xbea6978c3dd7434eU, 0x3d08a9f03d5a4542U,
  0xbcae1460bec55270U, 0xbd0ffb173d8cbabeU, 0xbe4197cc3ef579f9U, 0x3def4a183df0f7a5U,
  0x3e10d7a03d6962cfU, 0x3e81f1123dab9283U, 0x3db48842bdd3ea23U, 0x3d2c2c5dbebb72d3U,
  0x3db2bc88bd529583U, 0xbe993068be00e3c3U, 0x3d0199d7be609ecdU, 0x3e795ef33e36b1a8U,
  0xbdedbb4bbdbb9f4dU, 0x3c5464fa3c105009U, 0xbe59e455bdf8ca26U, 0x3ca27908be30bc89U,
  0xbdd524f9be873503U, 0xbe866539bd1761b0U, 0xbae596d93ece85ccU, 0x3d40f5c0bf24afcdU,
  0x3ea2a83cbe0c94a0U, 0x3dcaff32be63ac23U, 0x3e3c89c6bec9a680U, 0x3d7816b5bdcc5d6eU,
  0xbe6782ab3e66dca0U, 0x3d0010c8be3fa577U, 0x3ca9a2e63e2fd489U, 0xbdfa41e7be8fe2e3U,
  0x3d1a4a583e00b5b9U, 0xbe1851443e6ff66eU, 0x3eb339c03de94353U, 0x3ced28fc3e3f792aU,
  0xbcb39449bea3668aU, 0x3ed8409fbd396661U, 0xbe31bfa83b522f7fU, 0xbe474dce3de46c55U,
  0xbd67aa073dc4f05bU, 0xbdf510e7beaa96e6U, 0xbd64cc6a3e26408aU, 0xbccd8eed3c2d0c86U,
  0xbd5a51603c9e65c5U, 0xbd3e7cc73e44c4caU, 0x3e8540f33e47e5d6U, 0x3da7ed16bde2606eU,
  0x3e2f90bb3e1e5bd3U, 0xbe21e5173cd1a8d9U, 0x3dc5c3683e28adf0U, 0xbceaaf333e1bdcebU,
  0x3d7abffc3d2066f7U, 0xbe1ef27e3dc232c8U, 0x3ddb79243dccda49U, 0x3dc184da3eee77bbU,
  0xbe909a853bab722bU, 0x3d72b9cc3dc1a3faU, 0xbd32c0313d8a4acfU, 0x3e0b04c63ebb9248U,
  0x3de8a7733e5379dfU, 0xbe40e1213e51a533U, 0xbd6ad253be16c70eU, 0xbe88d6b8be90a201U,
  0xbe6f4379bde23522U, 0x3d84a576be0d4384U, 0x3de85b14bd6919adU, 0xbe256b4b3d3680eeU,
  0x3d8075133e183020U, 0x3e4416d13d8c38e0U, 0x3c0952d1be5f266dU, 0x3e3611c83d20deafU,
  0x3e711b373f010224U, 0xbd828bf6be89d4ebU, 0xbe8096bfbd8e5f11U, 0x3d2b9f95be92f876U,
  0xbdcb7b62bdf594bfU, 0x3d7f7cf4be2d1b90U, 0x3d2ead9ebde83a82U, 0x3d677a423db21792U,
  0x3c1e28bbbe0dc086U, 0xbdabb2ecbdca583bU, 0xbdea3ff9be02d77aU, 0xbe5bebeabe10f143U,
  0x3ec405eb3e2d5ee2U, 0x3cd9039a3ca562ecU, 0x3e3069de3d2376a2U, 0x3e5c8748bd984642U,
  0xbb96d5ed3e28b243U, 0x3e4e00a83e19b96cU, 0xbd6859a3bdacb51aU, 0xbe0deb853e80a0b5U,
  0x3e2fbee0bcf6c0c0U, 0x3e11a1e5be53a9beU, 0x3e0028b9be2db724U, 0xbec31c1b3c2b5531U,
  0x3ef0674b3dd15ca2U, 0x3e798f453b3cc45fU, 0x3dd8e29b3e20d167U, 0x3d447faf3dfd9f23U,
  0x3da41330be3f7609U, 0x3e2c6ff8be9cd2d7U, 0x3dfb03273e4035d0U, 0xbecde7ec3e0e5d72U,
  0x3de167f6be980c73U, 0x3e1c42e83c584fafU, 0x3ca059d43e178f42U, 0xbe134de2bd172d4bU,
  0x3e0140bd3cc249e6U, 0x3db998aebc85d55fU, 0xbcfd6aff3daa622eU, 0xbcc74df0be4c9887U,
  0xbd97da48bedb7913U, 0xbd85b8ec3c36e3e3U, 0xbd43e14dbaee911eU, 0xbe1388f5bbd48eb5U,
  0x3dcf2722be18747fU, 0x3d740f4dbc00d632U, 0xbd91fd053d1016f1U, 0xbe17c07dbec8274cU,
  0xbe177e8e3dfc27b1U, 0x3d8e2722bd4e63dcU, 0x3d466ae73cc34a04U, 0x3df63dc23e09705fU,
  0xbda257013e129768U, 0x3dbf8193be82bc64U, 0x3e3fa67f3e2bce98U, 0xbc54f6773dd118ffU,
  0x3ded4de3bdc5e246U, 0xbe06fcc03ea03051U, 0xbb39404fbdb2faceU, 0x3d6983f43d5b9658U,
  0xbca543bf3e549ee7U, 0xbec44bf2be92e79cU, 0x3d028608bd909739U, 0x3baa08773e2f1237U,
  0xbdf191d53df998e6U, 0x3c16d0b43e6df05bU, 0x3dd3aa10bede49a2U, 0xbe804f063d152290U,
  0x3bb063e83e3817c3U, 0x3ee9371c3e491481U, 0xbdd232563ddb7b2cU, 0x3e187699be4b0fc0U,
  0x3e58046ebe4853deU, 0xbef0489a3e425893U, 0xbd0807983e0ad129U, 0xbe25b1b5bceb1774U,
  0x3ead5ad83daceb65U, 0xbd5ee0b53cb111b0U, 0xbded2644be57cb9eU, 0x3e093a6f3cf69c45U,
  0x3e95b7ca3ce7a02dU, 0xbd6983573de6aac7U, 0x3cb5906c3d485906U, 0x3dc79d50beab8df0U,
  0x3e94849d3d2c638bU, 0x3c95a7903e203d04U, 0xbc0ff19fbe368845U, 0xbcf3b283bea24caaU,
  0x3dbd3b233d801234U, 0x3e03a73ebdd5c62aU, 0xbe6b4b873eccc342U, 0x3d418d863cbd6526U,
  0xbd370b85be1822deU, 0xbdc9329ebde06e39U, 0xbd3b84863d5c8b78U, 0x3bbf468ebdc012c7U,
  0xbd7c9a933db8e887U, 0xbd69ff48bf16580bU, 0x3e8059d03e10fb24U, 0x3dad62f83b718ca7U,
  0xbe3edd6ebc1e54d1U, 0xbe9bc55b3cdda55eU, 0xbe8c979bbc657700U, 0x3e0bc44e3ed80d06U,
  0xbe16f44cbe60e8a5U, 0xbd6c36ad3e52a958U, 0xbd9da3da3d3306d2U, 0xbe026afd3e4672b3U,
  0x3dad7d043e524671U, 0x3daf0eb93ddd08c1U, 0xbc44aa47bdfbfb36U, 0x3e8c0631be4f60ebU,
  0xbe835754bd2da330U, 0x3d977a01bbb0c18dU, 0x3e0c3e2b3db8a516U, 0xbe7ac3c83e0b5fb6U,
  0x3e3956493c616408U, 0x3d8a94debdab38a2U, 0x3e42f9073e4a7aecU, 0x3e063ac0be00dc4fU,
  0xbda9b89abdcbe1ecU, 0xbd9a53213d120de1U, 0xbd86b19e3e8671a5U, 0x3e176c80bdaee000U,
  0xbd8ede333a25cc10U, 0xbdd1b2f83ec417aeU, 0xbdf32495bdae5afeU, 0x3cd5a68f3d825becU,
  0xbdbcf1883e049d3eU, 0x3e061f243e0b0e28U, 0x3e0912fdbdff25d8U, 0xbe93b236bd2c752fU,
  0x3dabd949be537d5aU, 0x3c15532cbdf5e2eeU, 0xbd96f808be892e4cU, 0xbd1e31fc3e88e57aU,
  0x3dac8a34bb835063U, 0x3d5408093f13017eU, 0xbd4beafd3e0897d5U, 0x3e28cc9c3edc0dc0U,
  0x3ddb13bfbe9bb66eU, 0xbd3361eabd26bb07U, 0xbd827ac23e42532dU, 0x3e3c7318be6c7716U,
  0x3c91301b3e25f880U, 0x3e63ee1bbc3fa5c3U, 0xbe1ceb4ebbcff568U, 0xbda485d63eef84c4U,
  0x3c631235bf1a385dU, 0xbe33a3b0be2b27ddU, 0x3de78b6cbcaa9e10U, 0xbf193fabbe17e158U,
  0x3e9b1ccd3c60ef40U, 0x3d2129423da165f9U, 0x3d37ccf73e5ffb67U, 0xbd6b2a843d9f33c5U,
  0x3dbb76533d914a29U, 0xbd35703b3de69c08U, 0xbeaf007fbe846430U, 0xbe8813cbbe32601eU,
  0x3e4c98fabdd269bfU, 0x3e35d0db3e51745dU, 0xbd5ebab0be15f4deU, 0xbd3bf106be4eb89aU,
  0xbe4002603e2a2524U, 0x3e607d1c3da2d3aaU, 0xbd781a603f025a0bU, 0x3daa3fb8bd090d41U,
  0xbe08e09bbe1af375U, 0xbe3da255be8a4ee2U, 0xbdc1e73cbde7f44fU, 0xbd8b178ebdef3652U,
  0xbe176848bae6a7c8U, 0xbe4a1e14bf72b646U, 0x3c9160323e350502U, 0xbd27429ebea0edbfU,
  0x3d9edd93bd6d86feU, 0xbe37fd56bf00e234U, 0xbdd58d6f3dbcb072U, 0x3e29f877bd01964eU,
  0xbe49f9833daeadceU, 0xbe3f6e2cbdcac11dU, 0x3c6bb464be7b10afU, 0xbd359e063e67e410U,
  0xbe40375b3c86d36cU, 0x3e04ce723e0249ecU, 0xbe98a1a43d9214e2U, 0x3d1c618abe7cad2aU,
  0x3e95eba53cdee087U, 0xbeb255f9bd1de215U, 0xbe07e18abe7a73cdU, 0x3e08fffcbc7b4225U,
  0x3dac5685bc142f7eU, 0x3e0f9d89bd9c01a7U, 0x3d94b2413e5a1871U, 0x3e05b434beb681dcU,
  0x3dd6b84e3e850c9fU, 0x3e034b183eb58d05U, 0x3dca32453e127ca8U, 0x3eb95d123dea2a84U,
  0x3e39abd2be08a4a0U, 0x3de5d4fcbe06b6f9U, 0xbecdbed33cd2c040U, 0xbb50ae7cbe2255a0U,
  0xba98d718bee43af4U, 0x3e1adcb2bccf7872U, 0x3e55c72c3d691dccU, 0xbcef003d3dd7760fU,
  0xbdfbdb153e955993U, 0xbe2b16e93d085845U, 0xbdfc8063bdcca0c4U, 0x3e972926bddf6628U,
  0x3e983154bba42342U, 0xbd8f2bae3d895125U, 0xbd9bd680be65886cU, 0x3e6535733df9a0e5U,
  0xbbd62bf9be8ccbafU, 0xbd36bb5f3e22500fU, 0x3d481f16be40e53cU, 0x3e484d103e3a7f89U,
  0xbdb2e0803dd6e928U, 0xbcca40743dde34b0U, 0xbc49be2a3d9d3a32U, 0x3e8055933d408f17U,
  0xbe892cc03d9850eeU, 0x3dee54bbbe871d2aU, 0x3e774d3e3e00fc81U, 0x3e02ffa93e0160ffU,
  0x3dc8c2b43e0cbaccU, 0x3dee78cf3e9d858fU, 0x3db435cebd911b52U, 0x3ec4d6c0bcd355d6U,
  0x3d811ae2beacdb64U, 0x3e0a5835be372b8aU, 0x3d199d0dbe9a1e21U, 0x3cbea5783d15eb36U,
  0xbe04f8113e138ad1U, 0xbdb9d8e33d9dbf98U, 0xbd680342bc9b208cU, 0xbd6907d73eadf82aU,
  0x3e04ca9ebe18acacU, 0xbcabbc9d3de32bceU, 0x3dc5c2a0bea0b681U, 0xbe2663703d9130aeU,
  0x3c8008733e0279a0U, 0x3e2b434ebd97a372U, 0xbcf099e93e175ff5U, 0x3df06f0a3c77ec84U,
  0x3e5fb2123d5616fbU, 0x3e7b74823d012a9eU, 0x3e27ae9abce554aaU, 0xbcecdf623dd72bd4U,
  0xbb00c977bda0cf7eU, 0xbd75a45a3e2c6d9fU, 0xbdf7893b3c6033a0U, 0xbd8c50603db36ac4U,
  0x3d90fd87bdbc83c7U, 0xbc9d4ee53ea0864cU, 0xbd6321ee3dd64b8eU, 0xbde77a47bcac4865U,
  0xbe3428b8bdfaa6bbU, 0x3e903404bd39164bU, 0xbdc2686ebbce1da4U, 0x3b53a461be4b8213U,
  0xbd0ddcbc3d9a9a5cU, 0x3dd675b53de0b18aU, 0x3c60a7e8bd9dfc3dU, 0xbd84c6d7be5ea067U,
  0x3e911e213d54b748U, 0x3cc126dfbdd4f3d1U, 0x3c0ecec03e0c009aU, 0xbe374d11bba63b69U,
  0x3c159ec23e9d14deU, 0x3ead32fa3e4230bfU, 0x3d6cd8e0bd7e7dd8U, 0x3dca33143e18b063U,
  0x3e91d3d83e4742b8U, 0x3c6a7d343e7b2412U, 0xbe0cf3833c150255U, 0xbe1f50903ed2f22bU,
  0xbea2494cbd497649U, 0x3f379e0a3d87d42aU, 0xbcd9f4d53e7c1131U, 0x3ec781503ea5442bU,
  0xbd093bd63e1f7de8U, 0xbe0977733e4ee7e3U, 0xbdce2c0b3e056468U, 0xbd8f788b3e65fa23U,
  0xbdc4f1ffbd3b7ee1U, 0xbe07dade3eaad40dU, 0xbe24f21ebe528f2dU, 0xbe0271c33e81e25fU,
  0xbea683ed3e84e066U, 0xbb6f1454be58c0c2U, 0x3e116948be9aaa98U, 0x3d1e4e653e88ea25U,
  0x3c930875bdd8d5adU, 0xbd38fecebd2cca61U, 0xbe092f1cbcdf93afU, 0xbf0a2f38bd0532b0U,
  0xbeb4981b3e958be9U, 0xbd960491be5ed57cU, 0x3d2f09db3d2663acU, 0x3ddfb7653ebb247eU,
  0xbe1d2f66be363324U, 0xbe6edb773db0b806U, 0xbe25b4a63ce80c54U, 0xbe6ac61a3ecc9bc0U,
  0x3e0a80fd3da696f8U, 0xbe0cb0f9be774badU, 0xbe8c701ebe5ae67cU, 0x3e0e04033e5de218U,
  0xbd96ee323ddefc48U, 0x3e5c3762bdb7638bU, 0x3e05ac6a3e99d433U, 0x3cf1caca3e1a8aeaU,
  0x3de61b933cbd5015U, 0x3caecd24bdb006eeU, 0xbe4f5ae73e42e669U, 0xbe5056303e4a3e07U,
  0x3ba599603e10c3c2U, 0x3d230022be8f0ab8U, 0x3e8929cb3ee4f17aU, 0xbea6830e3e41e2a0U,
  0xbe6405193e481a9eU, 0xbd133a58be4bbb03U, 0x3e1c22443e3ef091U, 0xbe14422abc421a80U,
  0x3d74a248be228e9aU, 0x3e62efeebdced00eU, 0xbe82838e3de6b670U, 0xbea9580d3e0e210dU,
  0x3e721b6abd9bc0fcU, 0x3de9d00b3e2a0ee0U, 0xbe74e43abe77ead2U, 0x3e23f1e6bd73554cU,
  0xbde5bc7d3e75ad8dU, 0xbe2e3f34beb1b342U, 0xbe608ca5bdcf6ee8U, 0xbd900733be45a3acU,
  0xbe08443f3e013490U, 0xbf2002e73e942348U, 0x3ceccd1cbe184171U, 0x3d917556bd7fcf80U,
  0xbd8c9d34bdea7cb4U, 0x3d12e2453e386cd9U, 0x3b777e703e3faed1U, 0xbd3b38653dea6f96U,
  0xbf1498aebe11a76dU, 0xbdfdb6223ea1338eU, 0xbd6bbeea3e4a138aU, 0xbddde5b83e554a45U,
  0x3e2df6f43d0b0028U, 0x3cc850c03eb483a2U, 0xbda7ad90be915805U, 0x3e0dac2d3d3dc322U,
  0xbd192fa33dc08d15U, 0x3e41f7eabe492d4fU, 0xbe70081d3dfbeb9cU, 0x3e89c41ebe56980eU,
  0x3e3cebedbc8fb6f4U, 0xbd0253a0be98a4f7U, 0xbd9a7932bdeb92beU, 0xbe8a5f333c705970U,
  0xbd361c313eac5d5eU, 0xbe7e90f83b240256U, 0x3e002b9c3eaa0af6U, 0x3e4aac433dcfa135U,
  0x3e18806c3e3e24f8U, 0xbe4982373e98d9fbU, 0xbce156503de11974U, 0x3dacfc1f3cf25521U,
  0x3dbb038a3e861cdaU, 0xbe5781053e7f9bb5U, 0x3e9d4d6b3df2b565U, 0x3ea1a49d3db4d024U,
  0xbcbe09673e8c1c3fU, 0xbde701b83db35fd2U, 0x3e089c6cbe13d71aU, 0xbd49ec69be521f95U,
  0xbe2ecdf6bcf99d24U, 0xbe7bdbdcbd929c1bU, 0xbc8857f83e9863f6U, 0xbd498d963e9990a0U,
  0xbe1adf8abe0c1bb6U, 0xbe1bc09f3da3ed91U, 0xbdba104e3e2b7540U, 0x3d8015733d9878d2U,
  0x3e13e7dabe04095aU, 0xbd99cbfc3dee7834U, 0xbdb3f9db3e8eb73dU, 0xbec2b38dbdda4e9dU,
  0xbcf0efd63e5c1627U, 0x3ba5f6c03e32ec39U, 0x3e4e53903c81985cU, 0x3dd013b13d980d60U,
  0xbdd618663d2dbd66U, 0x3d274c4ebe2032a7U, 0x3cd934633e826b17U, 0x3e6ab1e7bdd9c19aU,
  0xbe0145dd3d705433U, 0x3e953556be8ecaefU, 0x3e2d0d863a062800U, 0x3dbaccbcbdab06ebU,
  0x3da154a4bd7fb800U, 0x3d4544183dbcb211U, 0xbe0d25973d0620bdU, 0xbc430a22be3e6925U,
  0x3e32fd16bdba27f7U, 0x3e22e497bd00f20bU, 0x3e40ef17be0ccfe2U, 0xbe9f085fbea24042U,
  0x3d11f30dbe011272U, 0x3e49899d3d607527U, 0xbe15898cbe334ab8U, 0xbe6558af3e4b9585U,
  0x3e46149a3d53d712U, 0x3e6ba615bdad4b37U, 0xbe67af48bd8022f2U, 0xbe5f8fa43dd9f1f5U,
  0xbe17e90e3e274e08U, 0x3dc06d4dbd8a5a65U, 0xbd0b0d4dbe999e89U, 0x3ea24c82be2d3755U,
  0xbdbeb8d3bdc304daU, 0x3e0c9364bdf8a0f7U, 0x3e671f0ebe92c436U, 0xbe5a13a73ebde1aeU,
  0xbe19a38a3e0d9aa7U, 0xbe4231f33e872885U, 0x3e8959643e165ce1U, 0x3e9144ac3d669faeU,
  0xbdf712d0be34b4e8U, 0xbe7e2578bd45f622U, 0xbd9e65cb3e80f79aU, 0xbe001d263dc780b2U,
  0xbe1c197f3dd7d58dU, 0x3de280543ef72e55U, 0xbdf4a06cbdb1e843U, 0x3d52f9043ea7c819U,
  0x3ee98fa3be033df5U, 0x3e5aba4fbe392f46U, 0xbcb6e604bed378dcU, 0x3e68c6903d8861e0U,
  0x3e06d1753e3417baU, 0x3dae59c0bdb952d0U, 0x3d42c761bd360bdeU, 0xbe41906d3ee2d698U,
  0xbded9979bd5cac70U, 0x3cf60b40be3b3d2aU, 0x3dca89cd3e638dbbU, 0x3e1166a13d65b723U,
  0xbe1a61503da81940U, 0x3e4a33393de3f9a1U, 0xbe067dadbc03827aU, 0x3e2491fe3d999effU,
  0xbdca5ce0bd692710U, 0xbe0c0ddb3ee9383cU, 0xbe28cd9d3e148cccU, 0xbd0effbf3c3831a7U,
  0x3e5e9f7a3c90f755U, 0x3e2497573dc1598aU, 0x3d236b83bd5a593eU, 0xbe9e4f5dbdaf6dc4U,
  0xbe05a2c5bd84cd4dU, 0x3d16c9253e4edc04U, 0x3d9f4ef83de79f02U, 0xbda021f2bc84908bU,
  0xbedd993f3da4c338U, 0xbead4ba8bef61969U, 0xbe0d51d2bd531954U, 0x3d05aa153dc2d949U,
  0xbe1c6b81be2fa800U, 0x3e5f0d72bef01ffbU, 0xbec0a68f3bb1d981U, 0x3e77d8db3cf2dba4U,
  0xbe05c107be9bbc20U, 0x3cfbbb2d3e2a52e8U, 0xbd82fc12bd7eab08U, 0x3e3b0a03bb415ce4U,
  0xbdfbde263e03e9c4U, 0xbe9e1def3da9f5e2U, 0x3dffdd08bf0dbc8fU, 0xbd6df2eabdf1055fU,
  0xbd96af6dbda22777U, 0xba504d00bd937ae8U, 0x3dd5a785bd716009U, 0xbdfdec743ee295aaU,
  0x3e798abf3da06299U, 0x3dcb6cd7bd038275U, 0x3f0d940e3ea7443aU, 0x3e605b9ebeb1466cU,
  0x3e0bb0f4bedfb7b6U, 0x3df1a5f9bdd3cbd0U, 0xbdfff2753e2cdb6fU, 0x3e290570be8ba2cdU,
  0xbd408655bbe95871U, 0x3e83277f3eb4fd22U, 0xbecead663e78cb20U, 0x3dd433bdbdb8ce4eU,
  0xb873b75fbe375588U, 0xbe88482abea64fe7U, 0xbf227dbdbda0d0caU, 0x3dc30f24bf09ac96U,
  0x3c9cfb71bd69c050U, 0x3e278b463d3795ddU, 0xbd30e66e3e17226eU, 0x3e473f2d3e17c6baU,
  0xbeab03343d7ac51dU, 0xbcb77c7d3cae9119U, 0xbd08ab5a3df28adeU, 0x3e1730523dabd9f6U,
  0x3e8d7fbcbd49b601U, 0xbdff489d3d348a42U, 0xbcdb8cd7bf01afafU, 0x3e84dabe3e082832U,
  0xbe016fe1be676b6bU, 0xbdf9129fbe19e103U, 0x3ea712b1bea65d34U, 0x3e6828c93c867b5bU,
  0xbd9a4e5d3df8c970U, 0xbe24a7483d5aeb8fU, 0xbe6ad7a0beef3962U, 0x3f1395a2bdcc4dedU,
  0xbe6cf8723de639b9U, 0xbe242e3dbc56a3a1U, 0xbefe77793cf267d6U, 0xbd7622c7beabb355U,
  0xbd53a9583e8aa33eU, 0x3e4daf0a3d6f405cU, 0x3e715d083dc2870bU, 0x3e470438bd472688U,
  0xbdcf26dc3dcb0ec3U, 0xbdc37ee3bdefb2ddU, 0x3f0be2c63e73c594U, 0xbdc072793d6a936aU,
  0x3e56b663bdcf5704U, 0xbc88a18e3f117fe6U, 0xbda547a13d7f5944U, 0xbd9930cbbce155d8U,
  0x3e7c9ea9bd35badcU, 0x3e73d7443cea646dU, 0xbd898ad2bda64c42U, 0x3be05fda3e06d457U,
  0xbe429eab3dd9883bU, 0xbd07d99abceafa8fU, 0x3dde4ebd3e0cb7ceU, 0x3e51ffd43dc702f7U,
  0x3def9aafbe864893U, 0x3d0cc60fbde28eedU, 0x3cb9d610be35b903U, 0xbe9072403e9d302aU,
  0x3eb97a83bdeeeec4U, 0x3e43b48a3ed1269cU, 0x3dd6153b3e2eb620U, 0x3e9b87fabe2668eaU,
  0x3e0b90ab3e268686U, 0x3e08e1aabe788fd3U, 0x3d90f39ebe612b9cU, 0xbe2a02a23e163c6fU,
  0xbe6736c13d31f1d7U, 0x3e7de7f13ea79d0cU, 0xbe45a0d13ca52cbfU, 0x3c953de73c8236daU,
  0xbe0f85313dfb6ed2U, 0x3e9c5229bea4d34aU, 0x3bde4dfe3e0c402dU, 0x3e74068dbd042b9fU,
  0x3e77bad13d8cf9adU, 0xbe074dd3bdb4bc2dU, 0xbd6184063d3ce558U, 0x3d9003163ed0a85eU,
  0xbd945726be8ec920U, 0x3e8097c33cf6ccb9U, 0x3e48a2253d9029b6U, 0xbe858ead3db9ab5dU,
  0x3cd45253bddb5311U, 0xbe47add7bd03fe33U, 0xbdcaa6e83d2d46cfU, 0x3e3f8e473d764db5U,
  0x3dd1b6913d786305U, 0xbdd4dbb6bcc5186cU, 0x3dbc63413f071863U, 0x3b968017bd77a0b2U,
  0xbee19fd93eb51a26U, 0xbdc8f6cdbea4a52cU, 0xbe109cc2be0df7dbU, 0xbe0f23b4be4ffa35U,
  0x3d2c441c3d58f7c1U, 0xbe27d2f2be33aaeeU, 0x3e63ae59bd4d7296U, 0x3eceb4553e4df18eU,
  0xbe4b329dbe3da10fU, 0x3db7bb6e3a852391U, 0xbe7fdc64bdbe71bbU, 0xbdc6ade63e13d61bU,
  0x3da76e1abcec7fbbU, 0xbd85e994bdb28873U, 0x3da19c20bd9b7138U, 0xbc732e38bd758982U,
  0x3e0e4ad53e3549aaU, 0x3db1960a3dcdbf8eU, 0x3ca68944bbc8c900U, 0xbdea5114bc09b6ccU,
  0xbd35f998bc886f73U, 0x3e7944d73d114365U, 0x3e27be203d96f4e4U, 0xbdc7eb0fbf1ef6b4U,
  0x3d33fa07be7f951dU, 0xbeb0af18bccbaf1bU, 0x3dee9cebbe608f39U, 0xbe7207a6be2ce29cU,
  0xbe876e30be06cf5bU, 0xbd474443be206eeeU, 0xbdb8d98f3d37c468U, 0xbec9233ebeda6d18U,
  0x3e31e8123e1e4f92U, 0xbec3e3aabd84759fU, 0x3d5de194be6b2addU, 0x3ec41b07bd2c588aU,
  0xbdb06a2abe01ca41U, 0x3e307fcabd8e0ba5U, 0x3e4c5082bbf33904U, 0x3e01f1053e7e2e92U,
  0xbecea992be4538feU, 0xbe4c81123dae9688U, 0x3de8fc113da2d0baU, 0xbd00f751be73aaf4U,
  0x3cfff3c0be8e888dU, 0x3e05e4ba3ee18928U, 0x3dc396a4be30f262U, 0x3edb8ff1bd3924fcU,
  0x3c81b3933d9cf0a7U, 0x3de4516bbe1bb8cdU, 0xbda6434bbeae88abU, 0xbd681554bdf33f59U,
  0x3e0a28cb3dee44eeU, 0x3dd16f64bef53859U, 0x3d20ac6a3d220d61U, 0x3e20479a3ef629caU,
  0xbe58e67a3ce078b0U, 0x3e9e77d3bcbc7fdaU, 0xbcd21a86bd0cb1daU, 0xbeb39c9abd8eb55fU,
  0xbda355783e82d8a8U, 0x3db41a5b3b665fc5U, 0x3dda42273e0cbb8dU, 0x3e2e5c06bdf7a082U,
  0x3ebc4a5cbd4b3c57U, 0xbcb4aa73be0750ccU, 0x3e14d715be3dac1cU, 0x3da7f4763e8de79dU,
  0x3bb5d6b23c0fe4f0U, 0xbdaf59fabd933736U, 0xbe146e0d3f46dc57U, 0x3e4f16cabd5ab6eaU,
  0x3e59eb883deda38bU, 0xbd66e24c3e2b46e6U, 0x3e73b27dbd1ac1f2U, 0xbe4df800bd9a7865U,
  0x3e3c027abdfa6f9eU, 0x3eaee53bbdf0470aU, 0xbcce36713de70d72U, 0xbe15f1e53dde042eU,
  0x3de746a33ecaa764U, 0xbe807c9a3e8b6a7fU, 0xbc119bc4be7f61d9U, 0xbd5fe25dbd83cc63U,
  0x3dc24364bb9c2daeU, 0xbe105b573f0a8352U, 0xbd514e56bdb63421U, 0x3dc9b16abe063b94U,
  0xbe738a9abe8aa4e4U, 0x3e5e7d9c3eb43315U, 0x3cbc3e68be34e391U, 0x3ea7bc08bee418e3U,
  0x3f086ba4be2d06f8U, 0xbc0bc4673c9b0a6dU, 0xbc884e283e728c92U, 0xbc3dfd743e22e052U,
  0x3e6541fdbe4e1f52U, 0x3e05baedbd55f539U, 0x3e8f2bedbee7ed4dU, 0xbe4bcd373e21adafU,
  0xbeeccfe1beb5ad1eU, 0x3d0c8c5c3cd1bb88U, 0x3e811de6bdd6e979U, 0xbdde52363e422ed0U,
  0x3e67e4393e8abc8dU, 0x3e935f643dc4616fU, 0xbe2a3687be4d00edU, 0x3d8d592cbd91d4c8U,
  0x3d9251b6bee707d7U, 0x3ddb8f93be25fe3aU, 0x3e3e3ac6bd8e84e7U, 0xbdf777a03eab8d0fU,
  0x3d4fde383d11e7e3U, 0xbcd954603e5c1d5cU, 0xbe672cd7be4ba674U, 0x3da66f573e9ec0daU,
  0x3d52e72b3eae3bb5U, 0xbcfbb3e23e725c97U, 0xbe62be27bda2dcbcU, 0x3df717b63e1e67c7U,
  0x3d2c59ebbd52116eU, 0xbe72a9803e2b961dU, 0x3d64492d3debe357U, 0x3e7317613e60343fU,
  0xbe853580be235a39U, 0x3e8f65b93df4353eU, 0xbea26be83ca44565U, 0x3e53eaeabe95827bU,
  0xbddf82b53df7884bU, 0xbe77a1a6be496d0bU, 0x3e1e758d3e356393U, 0x3e78bee93cad604dU,
  0x3e1ac20d3e7b473dU, 0xbc7de9a8bc8525feU, 0xbf0733923d86d5d9U, 0x3e0f6a89bdff1718U,
  0xbca83308be113ac6U, 0xbe0878c8bead9b35U, 0xbd0c790cbf02fe86U, 0xbe10f6873e0d6e8bU,
  0x3c001dbf3cd0abacU, 0x3d902d16be7030f7U, 0xbd8e76de3e2ccd00U, 0xbe20d0603dbdbba1U,
  0x3de1ce6c3e5c793bU, 0xbe4e7c37bec512e5U, 0xbdae5fefbddd0907U, 0x3c19fc8dbdae220cU,
  0xbdda3afe3cd7eff2U, 0xbde42a5f3e0f96beU, 0x3df120713e9a0153U, 0xbe291224be3b0cbaU,
  0xbe2af95cbe4d416eU, 0xbde84040bf192694U, 0x3ed9f689bc8fe586U, 0xbde4d0ef3eae3becU,
  0x3e4e0c7cbeada23fU, 0x3d9a38c33e566a36U, 0x3e764ead3e608ee8U, 0x3c9152723dff8e36U,
  0x3e3cd7e53d6944b1U, 0xbe73f978bf2259d8U, 0x3d61c499be3637ffU, 0x3d9cbdaf3ddc9ae1U,
  0xbbeb900abeef5e22U, 0xbd3038d0be35ccbaU, 0x3de94fa3bdb7f3d6U, 0x3ecfbb163d849c98U,
  0xbcaede493dc031e8U, 0xbd176f703d1f22a4U, 0x3dbddfee3e013df8U, 0xbe056ee43b8a8b48U,
  0x3e1b8f1abe8729c7U, 0xbe20280e3e5715ddU, 0x3eb427b4bcce3e88U, 0x3d6a9d793d30e9ceU,
  0x3e3104ad3e12ffe9U, 0x3ec871cfbf08adf8U, 0x3d5df5b13e1bbc00U, 0xbde928eabda8bc96U,
  0xbdbbd5943d45b873U, 0x3e16d5273ec0e865U, 0x3be98e30bd097cdfU, 0x3d879ff3bdd8b8c9U,
  0xbe4eaf243d25da0eU, 0xbe2a1801be0f1ea9U, 0x3d769510bdc31df1U, 0xbe55bf623ddf6c0aU,
  0x3d73e5483dc2f15dU, 0xbe1b78c1bd99f2e6U, 0xbdc3428bbccfb493U, 0x3cc489503c3926b9U,
  0x3e0134c3bd92fb78U, 0x3dd73594be13c6e1U, 0xbddf79243d8156cbU, 0xbe3218d2bddc62b4U,
  0xbd5050c4bdc35f13U, 0x3d83b87ebd7abe1cU, 0xbdd0646abda0b790U, 0xbce0fde1bc3c7a46U,
  0xbdba6e2a3e025c31U, 0x3d6fb294be39b464U, 0x3c2c712ebd103cb6U, 0xbd825bf23da2ee9dU,
  0xbc5baa7e3d702da7U, 0x3d2542a5bd0f40e4U, 0xbcdac1c0bd98e25aU, 0xb98fcfa7bd57459bU,
  0x3dbb7708bdcea795U, 0xbe0985bbbdfd70beU, 0xbe5936bebd78faebU, 0x3d94d8c8be147fbeU,
  0x3d81faa73e01a484U, 0x3de1dbeebd3c5b98U, 0x3d9efa423e18f1b8U, 0x3e1eb434bd4331e9U,
  0x3d808f843e27e478U, 0x3d3480703dfb557eU, 0xbcde98c33b6abc80U, 0xbcacb2d8bd889579U,
  0xbe49f8cfbb18255dU, 0x3cb15df23db22f76U, 0x3c16f8c7be3e6fd2U, 0xbdd58bcbbe352f5dU,
  0xbd433951be4209e6U, 0xbc385f85bcba2443U, 0xbdb51bdb3dbd5f17U, 0xbda0f0f23e13dae5U,
  0xbe4b6644bd1962f4U, 0xbd620fb1be4f3c98U, 0x3d73cbbfbda040e1U, 0xbd4b4b7b3e0f7ba8U,
  0xbe3ccf4abea40055U, 0xbd482fc93dd735acU, 0x3cbedd70be8f5d49U, 0x3e074da13e4b0658U,
  0x3d8d57e2bd9fe68dU, 0xbda0edc6be849cfdU, 0xbed37870be2e413bU, 0xbe320776bdd17b0bU,
  0x3ebc9f0c3cb9e903U, 0xbe076ba93e3cea63U, 0xbd32e5243e35deb4U, 0x3cd9f884beb85c71U,
  0xbba84e20bd905895U, 0x3e42f4bd3df86919U, 0x3cfbd20a3d1a6a4aU, 0x3ed01e85bd402f3eU,
  0xbda5493cbe18dfa5U, 0xbd0cec043e700cb5U, 0x3d648b16be9b1c23U, 0x3df7b5ecbd61b263U,
  0x3e6b43923d5c9065U, 0x3c3a6ad63e15cf76U, 0xbe3a5b563e07f107U, 0xb9dc9cb2be5c87c6U,
  0xbe62ecd23eb17fb0U, 0x3d46c286be68d6d2U, 0xbe85d2d03d578eb6U, 0x3e0546f03dd8199fU,
  0xbe73755dbdef62a9U, 0xbe1a75173e6ec467U, 0xbd9e843e3da5da5eU, 0x3df8eb42bebacd39U,
  0x3cb40c7d3e556b1fU, 0x3d973e723dc7ed19U, 0xbcbb7decbe291c07U, 0xbd9bc4a8bdb809eeU,
  0x3ec234093d3c5e28U, 0xbc1659b1bd95068dU, 0xbe0bbeb0bf073536U, 0x3e91ffbb3dd0a9a6U,
  0xbe2038643ddea895U, 0x3e520e50bf6eb7e2U, 0xbd3c0b493d573431U, 0x3e4b77fe3d595191U,
  0xbf00f16f3e14e099U, 0x3d73445b3ec3de8aU, 0xbe279eb63d879e8fU, 0xbd80b26b3dffee94U,
  0x3e2c596bbe195613U, 0xbece22f5bd5f296cU, 0xbe1e821fbdc0cac4U, 0x3de03cf5be47342eU,
  0x3ddf7f6c3e216bf9U, 0xbe1777a93ccebebcU, 0x3d6355403d7eba10U, 0xbe29e2d3be0029a5U,
  0x3e08f3c43e621a5fU, 0xbdf900adb9414993U, 0xbe4ac6e93c3038cdU, 0x3c87ddf83e50b387U,
  0x3e0f3bc23d86a1fcU, 0xbd11c5f13dd54109U, 0x3dedc6d8bda3e49dU, 0xbcb3363d3d807c24U,
  0x3d320013be41853eU, 0xbd496201be21c47fU, 0xbded7a6dbd1c01f9U, 0x3e0c07b23dc8c746U,
  0xbd85796bbe78ce5aU, 0x3bc29c60be0247d1U, 0x3d9080273cfa95f8U, 0x3df369933e6d37cdU,
  0x3e41cdbfbcab2b5eU, 0xbdf2e2f43cc3a498U, 0x3d5766033dcfd75bU, 0xbd89d651bd11d2c8U,
  0x3d9adfea3df355a5U, 0xbe1c459cbbb58bd6U, 0xbdecddf73d8e9046U, 0xbd1beea6be2bee8eU,
  0xbda48d5dbe13aaebU, 0x3d14b16f3c9af249U, 0xbd2e108f3de86372U, 0xbd5ce18fbe34d0aaU,
  0xbe6f9a9abd50895cU, 0x3e8a0f6bbe4c36cbU, 0x3c9582ee3e2406d2U, 0x3e0d5e29bd541492U,
  0x3e19d46e3d7b51e8U, 0x3ce28afb3cae3f07U, 0xbe0c49d13c1c6cd1U, 0x3d5dd9fc3e88820bU,
  0xbe69d52d3de12833U, 0xbacc9747be4f6109U, 0x3e09c37b3d628073U, 0x3e555aa13e37a174U,
  0xbe1316acbde7a2e3U, 0x3e0b494cbcc4d1dbU, 0xbe0b3ab53d8e20cbU, 0xbd2de46b3e224377U,
  0xbe0465bebe20ecc3U, 0x3e005fdcbd6ad8d1U, 0x3d3c276b3dc5f4beU, 0xbdb849bc3e1ebf74U,
  0x3e0cb8aa3d2593c8U, 0xbe2860c6be07040fU, 0x3c3bd2ebbe1dee28U, 0x3e1663f2bd65c914U,
  0xbdd074b3bd058ec1U, 0xbe314b7d3d8a101fU, 0x3e17cd7abcb44472U, 0xbdf8337ebd4a5f48U,
  0x3dc46e58be282f9fU, 0xbde27b73be2619f7U, 0xbe0fbf65bdbca1aaU, 0xbb2c7db8bd88fea0U,
  0xbd267dd93db4bce5U, 0xbde0b04e3d39991bU, 0xbddb78733e1293eaU, 0x3d99b5343d43c619U,
  0x3e1231ddbd05b20aU, 0xbc81f2ea3da8c91fU, 0x3e171edfbc0cc4b1U, 0x3d949717bdb56ecbU,
  0xbe1a4025bdec0489U, 0xbe125ff6be28ae10U, 0x3ca221de3b9f714bU, 0xbdc2cd2f3d8cb5faU,
  0x3dc9323ebd6a10f0U, 0x3d7619773cefdac4U, 0xbdd4dd64be0568e5U, 0x3cbe21243d183a2aU,
  0x3d5ed3253d84ad09U, 0xbe273b86bd80ba8dU, 0xbda63b273d7b9123U, 0xbdac41ed3e0d0734U,
  0x3e2c13b6be1d2c94U, 0x3d4bbdb5bde0f480U, 0xbc88a329be195cc2U, 0x3dec5eccbd6a5501U,
  0x3d0ebc333e134788U, 0x3db1cd75be178ac1U, 0xbd9001a6be077b79U, 0x3dd04ee0bdfda31aU,
  0xbd8dfccdbe31b7b5U, 0xbdb15aecbe1af87eU, 0x3d783956bd474751U, 0xbd8bb67eba13481dU,
  0xbbc538b8bd702a16U, 0xbd98d1293d81c7b3U, 0xbd7077f83e52d171U, 0xbca7c22dbc21f450U,
  0x3db6d48d3d490d39U, 0x3ac8e99d3df3c263U, 0xbd270df0be1d7baeU, 0xbe63da0cbe665d00U,
  0x3da9d881be528c52U, 0x3d2be43abddccaddU, 0xbd10e196bd9c7cafU, 0xbd0b06cc3cdd30c4U,
  0x3cf916d7be53fd0eU, 0xbe448b733e24662eU, 0xbe0a654ebdc1afc0U, 0xbe1bf948bc16def8U,
  0xbe81b6bcbb618204U, 0xbe185517be296cb4U, 0xbd74eac7be05dde9U, 0xbdfaf5aa3d57332bU,
  0x3d5082c5bdbcc36aU, 0x3dc02f0c3d2732beU, 0xbe0bd1e83df833beU, 0xbd88e828be340355U,
  0xbda6f648bdeb7dc5U, 0x3d9c1b0b3d8a0dabU, 0xbd8064f43d0196c5U, 0xbe0a961a3d018f3dU,
  0xbc707802bda158dcU, 0xba9a504dbe027201U, 0xbcfd2cf9be877162U, 0xbc7a1e63bc7c3b14U,
  0x3db857543de3b058U, 0xbc0363f43d79445cU, 0x3c1ffee13e042c3eU, 0x3e28ae6fbe25a4aaU,
  0x3d5d92923d0c3f2bU, 0x3e4ba2cd3bb6e0d4U, 0x3d6045a13e0b8812U, 0x3ced1cafbdefbb9dU,
  0xbdd7582e3d251616U, 0xbd41995e3dbc7b62U, 0xbd4a2e503e0008a5U, 0xbde7b9fcbe6c73fcU,
  0xbcfb5bd83d731054U, 0x3dbd92343d506d8aU, 0x3d9fff2bbdbe7a55U, 0xbda0c724be4a80d5U,
  0xbd8dffd33daa5587U, 0xbb325fa9be3f63d6U, 0xbe43ae8f3e274654U, 0xbcbfea51bb966df1U,
  0xbdd5a2013e23146aU, 0x3d82a672bc1562fdU, 0xbe4c70563df153e8U, 0xbdc74369be908e8bU,
  0xbc7a12003d3b7750U, 0x3e8e89473d8b1f59U, 0xbef03e04be752301U, 0x3ebf96863d39e706U,
  0xbed7ac38be378149U, 0xbe4e5c5bbe94f957U, 0xbe9c24343c801135U, 0x3d0b0aebbe483bd2U,
  0xbe03d4063e429460U, 0x3d919bbc3ea5c082U, 0x3e88639e3dbea1f4U, 0xbe8637d6bab78254U,
  0xbea53c7dbd4e514cU, 0x3d084becbd2fb3cbU, 0x3e9ffc3dbd83133fU, 0x3c0174903e07c4a0U,
  0xbda64a3e3d92eddbU, 0xbde5746cbd6b91a6U, 0x3e549769bc11f690U, 0xbe29684a3e58a46eU,
  0xbb7f9aed3bc0d4c7U, 0x3de323f13e074e9dU, 0xbe1ba3843d79fbfcU, 0x3bc3ead7be10628dU,
  0xbc65df5b3e78e63fU, 0xbd55a6713d4ab9baU, 0x3da9963dba3b034aU, 0x3e61af7d3ded0ce9U,
  0x3e7bf222be518e03U, 0x3da37430be39fdd2U, 0x3e30c9b8bad64131U, 0x3d848c903e68a9d6U,
  0xbe69a7223d67565cU, 0x3e355165bee86b6cU, 0x3e1f81ab3e5cc3f7U, 0xbda5bf24beb0f0cfU,
  0x3e891da73e011b62U, 0x3e2eb8e33d8df1cdU, 0x3e5c16cbbd6dbf22U, 0xbd45e14d3e397342U,
  0xbf18102ebe4bab05U, 0x3eda8574bea4a186U, 0xbd1497b33e4b5ef5U, 0xbc74eb963e338960U,
  0xbe61ac45be078840U, 0xbf0affb13de93b34U, 0xbd5ddbb1bd8c8878U, 0x3e939d9ebc0b14c8U,
  0x3e800acdbd51bb7aU, 0x3d9e32963d9e78f1U, 0x3d853482be1370e5U, 0x3e563ccd3e98b754U,
  0xbe8a5264bedd89a0U, 0x3ef351de3e48acc5U, 0x3cdd628cbde75868U, 0x3db00ddabe306c9aU,
  0xbe92cde7bde95c46U, 0xbe18cdb93e00a609U, 0x3d06853c3e162b39U, 0x3d74d3723ebe3d1cU,
  0x3ecc0a0a3cecb055U, 0xbd7b538b3d907f47U, 0xbeb0241d3e0c7aadU, 0xbe284c923ead789aU,
  0x3f0c8dbdbdac8022U, 0xbca6e690bcabab6bU, 0x3c6cd824be112bf9U, 0xbd3728793f4b72ceU,
  0x3db859193e58e55aU, 0x3dd4d9623ded554aU, 0x3ece19c9be10df94U, 0xbe9028a23dfed75bU,
  0xbe022b6e3de8dbcbU, 0xbcee25e03b53556cU, 0xbd9c86173e63647dU, 0xbe4844e33d2e6f82U,
  0x3dfcf2a93de3a4a6U, 0x3e3b93483d9de4d6U, 0x3dd5783abdd04267U, 0x3ddd55bf3db51304U,
  0x3e13a41fbe48b284U, 0x3ed6e6c5bc79948cU, 0x3ca191a43e006214U, 0x3e3d3de93e94a5e7U,
  0xbdd60a27be4dc854U, 0x3cd2e1b9beaa9aa4U, 0x3dd56e08be25e63aU, 0x3d0a4847beb6f16aU,
  0xbc1373373df1446fU, 0xbdecf56e3d947ec0U, 0xbe6e3a95be7cf653U, 0x3e0ceb2a3e2e185fU,
  0x3e1617ecbc5a524eU, 0xbdac28dbbd48d037U, 0xbdb6fb243cfcb12cU, 0xbe253140be9684dbU,
  0xbcc6a29e3bfaf6cfU, 0x3e50de173ddb9179U, 0xbdf61754bc93d0f4U, 0xbd9adeef3d14711cU,
  0xbe0ecca43c9d5cd0U, 0x3d486dcd3de2eb5aU, 0x3e3446d5bf1ead7aU, 0xbec8776c3b54cbabU,
  0x3e0f6d4e3e15b0e9U, 0x3e4ea878be2c993cU, 0x3dc469f83e7ff018U, 0x3d8d9d17bd570968U,
  0x3dfcc3183d7c3230U, 0x3dfc3f01bf1a41fdU, 0xbeac699dbdf34373U, 0xbecb6b0e3d7b4d3dU,
  0x3dc9c88e3dce3c04U, 0x3cc11865bd696933U, 0xbe0942ea3ec37debU, 0xbda92d533e7acfc1U,
  0x3cfd653cbcc8b8c0U, 0x3c210236bec98ba9U, 0x3e367d7a39af9cecU, 0x3dc6b525bf0ca327U,
  0xbe575328bedd3129U, 0xbcedd604bd208500U, 0xbcd710ffbd6b7799U, 0x3d153ea13e36889eU,
  0x3df258e5be4e1315U, 0x3ce6c3fc3e405b89U, 0xbda630c63dd0b809U, 0xbe1509d9bd929a5bU,
  0xbe833b4cbe4d770aU, 0xbc8bf480bdcdb19fU, 0xbce613d7bcd16cc5U, 0x3e0193debdd119aaU,
  0xbe634828bdc64d06U, 0x3d644dd83d204295U, 0xbbe8b4bbbda340ccU, 0xbe552d86be0c1cf0U,
  0x3d9d2566bd368c1fU, 0x3db46cdc3eacc475U, 0xbd366d213e1685c5U, 0x3e2acddbbdc7c088U,
  0x3d185bcd3d653c1eU, 0xbe85ff9f3c083972U, 0x3d65d2643e0705a9U, 0x3e6d3f263e2572b2U,
  0x3dead849bdc54e88U, 0xbd81425bbd8e65fbU, 0x3daeecab3cbcb11eU, 0x3d4a5e723dcedd38U,
  0xbe9b6aa23d9be441U, 0xbedb21df3ea63efaU, 0x3d9ad4ecbe179d0aU, 0x3d2eb3553e924e24U,
  0xbc313f08bd8f53b9U, 0x3df3657ebdf50007U, 0xbe0e4a273c0da145U, 0x3e899399beed944eU,
  0x3d8c9f59bd6c51bbU, 0xbe16642a3db83544U, 0x3cd17250be71ad5cU, 0xbe4e545c3cd2fb3cU,
  0xbdc79203bc0dd9ffU, 0x3ee43991bd121db2U, 0x3d669e53be473812U, 0xbe1bff923e7c37fcU,
  0xbc06c0583ec14a7cU, 0xbdae334e3d891369U, 0xbded1a9fbdecf767U, 0x3db972993e2f5279U,
  0xbee1286f3e442218U, 0xbe1a7d84bdf006efU, 0x3eb4f7bc3e9af1c5U, 0xbe1627b43d0d4788U,
  0x3e556096be84fe20U, 0x3e35482f3e3444e4U, 0xbd3957163e5eb179U, 0x3e2825123f1c0259U,
  0xbd2b03fabd56a73aU, 0xbe87dd00be97466eU, 0xbea4aeaf3db86beeU, 0xbd4976063de669daU,
  0x3e42802b3e152078U, 0x3f2094c23e97163fU, 0xbeebac7e3d827156U, 0xbde449acbe0b2567U,
  0x3e1c379cbc2b8b63U, 0x3e2023cebdbf97e4U, 0x3d3bf337bcf46f2bU, 0x3e183bcabebf0e27U,
  0xbd3200e33d836672U, 0x3e4e60c3bdce63eeU, 0x3e2865ffbd60049aU, 0x3e13ed79bd1fb498U,
  0xbdd3e16bbe628a0fU, 0x3e53dad63da86715U, 0xbd910d3c3c94d329U, 0xbe67f5fd3e12de55U,
  0xbdf02bc5be89a571U, 0xbe1208dd3d9cbd4eU, 0x3ead8ce0be025505U, 0x3e0b24653cfb9eceU,
  0xbd8d172bbe2a7eacU, 0x3e1d4adf3e7bd40aU, 0xbdc7139c3e063b9eU, 0xbcf7f7d7be9b9208U,
  0x3df561a63c8ae783U, 0xbe910607be5f8560U, 0xbc06ec3abe1c2b1aU, 0xbdf46745bca55bf4U,
  0xbc558200be25282bU, 0xbc8d43fd3e55258cU, 0x3e327b47bd503ce7U, 0x3e9f39dabc2f182fU,
  0xbe3961b0bd98139dU, 0xbdefd9373f0dcfeaU, 0x3ed5243e3ca51c2dU, 0x3ca2aac0be185549U,
  0xbe13c3c9bde5fb2dU, 0x3e7ca5853f7d7205U, 0xbe5521b5be14be9aU, 0xbe90727c3f2d5250U,
  0x3e8ffa7dbe60f374U, 0xbe9fe7b73db0c083U, 0xbea90b603e17c0f5U, 0x3d11033dbdd13a61U,
  0x3e293dc93df22f94U, 0x3d920a8f3d57b9ecU, 0xbddbfc3c3c0911afU, 0xbe0b830d3e51b78eU,
  0xbe10e437bd1dce2dU, 0xbca440b2bec095e8U, 0xbcba14283ea86ecfU, 0xbdf90d41be24a8d1U,
  0xbe81c8d6bd874b79U, 0x3e171a4fbd73e5e3U, 0x3db01fbcbceb0857U, 0xbe5ea649be5b4ae2U,
  0x3e310a2ebe86f5c5U, 0x3c8a53cbbbe63e6fU, 0x3e1c7ee83d25ed5aU, 0x3e14b02abc009529U,
  0x3d31bc2bbe476abaU, 0x3e0c1b8ebd287ddeU, 0xbde08e4dbdea8e8fU, 0xbe382316bd9bfe5cU,
  0xbe71e9cfbe12862aU, 0x3e3735bf3ce39da8U, 0x3e5c20fcbd0a433eU, 0xbd7d7da73dc651a8U,
  0xbd8c8ae8be01cddeU, 0x3df6fd2fbe567149U, 0x3d2cf5f83d3ab724U, 0x3da230cb3dab6969U,
  0x3d483f423e72393bU, 0xbe3441d1bddfee3cU, 0xbd32ea42bc20cbe3U, 0xbde9d36dbd0a81b2U,
  0xbef6048ebdcf3ad6U, 0x3cd32ed83d01960cU, 0xbe0054ecbe955d43U, 0x3d3e63fc3d4230e4U,
  0x3d5e3e26bdb12718U, 0x3e939e3e3d71a116U, 0x3dbefebb3f0c3de9U, 0x3de371f4bda8ad5bU,
  0x3e1cd86c3dc180a8U, 0x3e185b3e3d92d0deU, 0xbdf760103cc7d41cU, 0x3d138ee1be9cc793U,
  0xbe6e93403d1a03e1U, 0xbc64e106be60dbefU, 0x3e23ba3d3ec2691cU, 0x3ec17396bda8ab23U,
  0x3e4ba5a2bce9eefbU, 0x3d3f8e7fbd8002e5U, 0x3e2214b2bc1a479eU, 0xbe1b37493e128819U,
  0x3e22385cbc90eafdU, 0x3d8349c0bdbae456U, 0xbe091f883d43a7bcU, 0x3bb0f8763e03ed6fU,
  0xbe0a8da0be71589aU, 0xbeac6d3b3e46828fU, 0xbdeaf4b83c47fff0U, 0xbd9610ecbd7a03e8U,
  0x3e23e7babdb96a1bU, 0x3e3eae36be38622cU, 0x3da817983d02e91dU, 0x3e28a932be946a71U,
  0x3e8847203e497c11U, 0x3bf10853be57f921U, 0x3e25f66ebc74ffd9U, 0x3d8261633e479f1aU,
  0xbc3ee80b3d6cf6f8U, 0xbdcc62323d769989U, 0x3e1a34e3be80d622U, 0xbe7530493e78514bU,
  0xbd5179bebe611fedU, 0xbb9cd350bbf08b53U, 0x3d6980e13e1c0e00U, 0x3b52806bbe96506bU,
  0xbd2f1d803d893ee4U, 0xbcef412fbca3e31eU, 0x3c85717f3e1e8e82U, 0x3d4301e1be826a25U,
  0xbe53d9f7be199188U, 0x3d1d54163e4a102bU, 0xbe3f16df3d21be5aU, 0x3de0626b3c9a5af6U,
  0x3d86c5643d20973fU, 0x3ddeb4323dd984f4U, 0xbd0f7ef2be1cf9dbU, 0x3e281ab43e1f8afeU,
  0x3dfdc16e3eccd8acU, 0xbccb7ef83d08eee6U, 0xbb83a3013dc1f454U, 0x3dcc3b90bd464dffU,
  0xbb962c72bc813c82U, 0xbdb631e2bf057f97U, 0xbc8aa00f3dd446dcU, 0xbc71321dbe7b13f2U,
  0x3e2f83213ed9338bU, 0x3e8eb3943c88db78U, 0x3d5fcf0a3d794cf0U, 0xbdf5d3e4bda573e6U,
  0x3df5b32c3e59fdf9U, 0x3e407bc43df59323U, 0xbe018b13bc66f62cU, 0x3dedf399be314e43U,
  0xbe8625df3e0b8bc9U, 0xbd2b68423c324ad9U, 0xbc31770ebe197fc3U, 0xbec5a26f3e79f55bU,
  0x3d80443a3dda63fcU, 0xbbaea85e3ded9d8bU, 0xbca09a03be857921U, 0x3d14f59c3e2369ccU,
  0xbd83bba93d008794U, 0x3b95f4b5be861f97U, 0x3e17f5423d2b4971U, 0xbcab04b6bd9a8787U,
  0x3e2a65f13e3db9ddU, 0xbde2ef7a3e568c70U, 0x3d9dd978bd14b52fU, 0x3e0c0df23dd3ca9bU,
  0x3d343f23bdfd2125U, 0xbdc39d2dbb82d832U, 0xbe0cd2063e0ce1c0U, 0x3db82e4e3df16b8aU,
  0x3d92e98a3e7d9392U, 0xbe180b6abd09ff29U, 0xbd1b601cb80f7000U, 0x3e2db18b3e6ac1c2U,
  0x3cfc08173f0473d8U, 0xbee769fb3e3a7588U, 0xbdf863143bbf2540U, 0xbcbcd01f3e9ac169U,
  0xbdcf52313e18460fU, 0xbd76fa5c3c795653U, 0xbd7acb18bd9e1336U, 0xbdc6b8debdaf8eedU,
  0xbd484531bdfbf54bU, 0xbf3adb943ddfb693U, 0x3e1b83eb3e04d76cU, 0x3e163ed43e84df5fU,
  0xbe7449e33cbfcbe7U, 0xbc3914f0bdcd52fbU, 0xbe077b6dbd1c5345U, 0x3d9bc12c3e98fcebU,
  0x3d9c628abdd09a1bU, 0x3daea9bfbe72d59fU, 0xbf0c6b51be157cd8U, 0xbe4f1fc5bd51c9fcU,
  0xbc86fff93e8964c9U, 0xbdd4ccb23bf362d0U, 0x3e20bf45bd047ea4U, 0x3d78f7063dd77484U,
  0x3de5301b3e071c31U, 0x3dad00c2bdd34fd4U, 0xbda76e19bec80f39U, 0xbe564a1abd5c52c2U,
  0x3d044bbe3d47d2edU, 0x3dbae3a1be88036cU, 0x3e9a02dd3e0214bcU, 0xbc97a4083e5284a3U,
  0x3e1c4eddbd8ed3deU, 0xbdd6f57d3e093092U, 0xbe1da5393e265db6U, 0x3cc4340d3e4f76a6U,
  0x3e615d203e0f0d45U, 0x3de75a8cbb9200f1U, 0x3d756da83d26ef61U, 0xbe902cc9be958cc3U,
  0x3e920a653e1e0f58U, 0x3c61b7b4bdab42e0U, 0xbddd75d43c5a9e38U, 0x3c39bb7e3d255cfbU,
  0xbe2c05293ebdf9c5U, 0x3e2bd31d3e03f282U, 0x3e083e393db0b0d3U, 0xbea76bbabea26053U,
  0x3e0314523e061212U, 0x3e352f193e72720cU, 0xbd6d56b03e269a49U, 0x3e0301b5bda3253dU,
  0x3b49d963bae71e2fU, 0xbd703b303e107dffU, 0xbede0778be0c6f9dU, 0xbd95b055be103305U,
  0xbda9a0ebbde6c7c4U, 0x3d569c883dfc231dU, 0xbe248d09bdd8b716U, 0xbda2c647bc839476U,
  0x3e0809903e596485U, 0xbe22c8033e06a36dU, 0x3ea7a3723e9e046cU, 0x3e173ea43a329b3dU,
  0xbd9999473e1b5db6U, 0x3dd5f24f3ecb43cbU, 0xbe4c336e3e352852U, 0x3e22b73ebcbb1563U,
  0x3d8cbf313e19e03eU, 0xbcad98abbddc0a18U, 0xbdc21a913d1830bfU, 0x3cf71c6bbc857858U,
  0x3d7dd7a83e083cd3U, 0x3e28a3603e38ae3aU, 0x3d8dd4ed3cc46ba0U, 0x3d6421373b02e36fU,
  0xbd15da85bd861b9eU, 0xbd487dd1bd5401bbU, 0xbe27a1bbbe38aa84U, 0x3cad43ddbe0d9a27U,
  0x3c292aa0bde4a112U, 0xbe07772fbe8324f9U, 0x3e3154dc3d8901acU, 0x3c17f414be6c6e73U,
  0xbd80639f3e134e83U, 0xbd206ca5bed19d7dU, 0x3d848c4d3e1bbe79U, 0xbd789fdcbe5e22b6U,
  0x3dc28c6cbc2ab9e3U, 0xbebe71333de960dbU, 0x3cfa1de03caaa48aU, 0xbbb2c9cd3d6797e5U,
  0x3e22e292be62be22U, 0x3dafe92fbd0533a8U, 0xbd3bf7233e657933U, 0x3ebaff283c073b10U,
  0x3cb5adb1bcd2eab1U, 0x3d9e7293bed95160U, 0xbd8a2a623dbc0f18U, 0x3daca7563e34fa2aU,
  0x3e7429463c93e351U, 0xbdd3aa6fbea3df75U, 0xbd157526bdeb3397U, 0xbc75459e3e5bbe6cU,
  0x3ee43725beb3e44aU, 0x3e5acfd9bd809245U, 0xbd20fa343e129f75U, 0xbd13d89b3e7099c7U,
  0x3ecfc4663bf81ff7U, 0x3e22fe663d7a7d9eU, 0x3d1cce043c467401U, 0xbe2688b4be1bcc84U,
  0xbe8614ad3c8d2aa6U, 0xbcf384d83e07847dU, 0x3c65569a3d18d927U, 0x3dbb20743f045d02U,
  0x3d8296c3be0c7616U, 0x3d58dcdb3e980241U, 0x3ea90555bde0d1b9U, 0xbe046e12bc546c53U,
  0xbe0db512be56b635U, 0xbd8122a43da282fdU, 0xbe074b2f3d37c6a8U, 0xbdd9803e3dd07591U,
  0x3e02cad5bda14f8eU, 0xbc90298d3eb78529U, 0xbe2edd06becc86a1U, 0x3dc2754cbb8523f7U,
  0xbe00b0c43ebecb44U, 0xbddc19e6befd5b3bU, 0xbca757f2bcd83580U, 0x3e3d5f433e3cd2d0U,
  0x3e02d8cabeb80c65U, 0xbccedefd3ebaec1eU, 0x3e2783c7bb1be652U, 0x3d89f1cfbd09f19dU,
  0xbe79bfacbe3c514cU, 0xbe26d43c3f0402feU, 0x3dcddc3bbdc6f3b1U, 0xbe0499573e2464b8U,
  0xbee39b4c3d1d2a09U, 0x3d4abe86bd3100c0U, 0xbe89aa69be818792U, 0x3ef33e74bb9ced5eU,
  0xbbad46793d8cb104U, 0xbd7fe284bdc0c710U, 0xbda57417bd7bd5edU, 0xbc331230bd93fdb6U,
  0xbe14a3a73d232408U, 0xbc805df03d694ac5U, 0x3d826209bdb1d5ceU, 0xbb7ef4a6be2e0170U,
  0x3e0c8e8cbd640befU, 0x3dc57cf33d28b7afU, 0x3df479e83d5557beU, 0xbe013729be0cd54dU,
  0x3dcad4fcbd2fee4bU, 0xbe3f308f3d603f38U, 0xbe2f5418be31b0eaU, 0xbd71c99cbdd9029fU,
  0xbe17e1703e09baf0U, 0x3cfb60c83da09b4fU, 0xbd1fea10be120a26U, 0x3d154dbcbdfffd60U,
  0xbe2c05a3be323082U, 0xbe09dbbb3d2bd837U, 0x3e2392703decc010U, 0x3d65cee3bcc0b0e8U,
  0xbdfe892f3e2c9106U, 0xbcc69d083deeded2U, 0x3dd9da0abc9f7cd8U, 0x3dad903cbe18f056U,
  0xbd57f92c3d92d286U, 0xbe16bc7dbcfd9318U, 0xbd9d4c9abd143e93U, 0x3dd7aac73da6c540U,
  0xbe30e2533d5128f8U, 0x3e1d5da6bdc21a2fU, 0xbdbc76153d4ed7bdU, 0xbdeed67fbe4274e1U,
  0x3cfe169abe21e48eU, 0x3dbb773cbe2a6e87U, 0xbdaee6943d1adfa9U, 0xbd9168573dd633deU,
  0xbe0803f2bda0bd2dU, 0x3de20c20bd8e8308U, 0x3c2817c0bc4c51e0U, 0x3e073e7f3d9adbc4U,
  0x3de1344ebe026ffeU, 0xbe38f110be30b23eU, 0xbe15317c3dc1a75cU, 0x3c397d90bd97aa0bU,
  0xbda68878bc6445b2U, 0xbe10bd04ba9e2f80U, 0xbe10e089ba4fb3ceU, 0x3e772cbf3e0ebbd8U,
  0xbe8739ce3cc1e7b5U, 0x3ea5fbba3dc17fd2U, 0xbd3d49043c9e17b8U, 0xbe71add2be386af9U,
  0x3e293b3abe957730U, 0x3e0c4a133ea86c31U, 0xbc9d78fa3e1e4111U, 0xbd9b3d03bd7027b8U,
  0x3ea052323d315bebU, 0x3e13a51bbe803550U, 0xbe13cbf23dbd92ebU, 0x3de1a2c8bd97c2eeU,
  0xbdacb89f3defe8c2U, 0xbe44d5f8be2d10e2U, 0x3d4e5eb9be1b2025U, 0x3e22047a3d9c5abcU,
  0xbebdc6e6bdc0a86bU, 0xbe313007bdbd50e7U, 0xbe4e3469bd1a80b6U, 0x3d2ed137bd8f89dbU,
  0x3d8bf1d8bd12777dU, 0xbd932cd93dd156ddU, 0x3c3bf9cabe91a260U, 0xbf18e1513e09f169U,
  0x3deeeb153e15b40aU, 0xbc93785a3e0b90cdU, 0xbe066bf53afdc7a0U, 0x3d931953be3f4c6eU,
  0xbd7401a3be03494eU, 0x3e174f6dbe7a8b44U, 0x3e183f34bdf16e0aU, 0x3e11be433e3ac26cU,
  0x3cb4a1ef3e945d74U, 0x3e0167b83e4403b5U, 0x3d7f9b76be2a5db6U, 0x3d52e99d3e3ab9a5U,
  0x3dfe9ce3be94cd8cU, 0xbe571cffbdabbb67U, 0x3da2722c3df4294eU, 0xbc5fc0df3ed7b01aU,
  0xbc76e33dbe5a0a4bU, 0xbe3268cc3e6e20b6U, 0xbe76d9973e3353ecU, 0xbe2cb06ebe41211fU,
  0x3cb6733c3e1c73fbU, 0x3d8277423d6b7f82U, 0x3d394e533ebf914bU, 0x3eb7e76ebd2ea2c6U,
  0x3da461da3e486a24U, 0x3e42bf74bd435f17U, 0x3d54901bbe631f75U, 0x3dea652a3dc14524U,
  0x3e111f0abc169fc0U, 0xbea4e843bd5ac952U, 0x3b4c61d93e586c80U, 0x3eba0a2b3e36c95dU,
  0xbdb7932f3d32a3d2U, 0x3e226dc03df1d127U, 0xbe96819cbee28ca9U, 0xbe7f340f3ea4bde7U,
  0xbcb5f6383ceb8ef9U, 0xbe2c123e3d0afe59U, 0xbd75161d3e4845b1U, 0xbe30e9ae3e2d318cU,
  0x3c5036ecbe985905U, 0xbd09f9cfbe425c34U, 0xbd0e67553d84a7cbU, 0x3c922a003de6a22bU,
  0x3d59e88b3e358926U, 0xbdcdb3483d48a08fU, 0x3d1c0700bd803111U, 0x3d48bb37bcce30ffU,
  0x3ed1eb4cbe150d75U, 0xbdcb66953de71e79U, 0xbe63b5e5b983449aU, 0x3e980d1bbe03b8b2U,
  0xbebf6a41bc4351a7U, 0xbe3e0c433ebdc1a2U, 0xbd781341bcba177eU, 0x3da302a23d9892aeU,
  0xbd4426503cebd398U, 0xbee903d5bd312182U, 0xbe546dcd3e28130eU, 0xbf316e663e290faaU,
  0x3d9fab943ddf610cU, 0x3e1ca832bd178de2U, 0x3c90deb2bb447153U, 0xbd0146fabc9fd32aU,
  0xbdb6e1c63a836082U, 0x3d8aa8b1bce06f55U, 0xbed50194beea6bc9U, 0xbea64f333dc8ccc1U,
  0x3cde901e3d4f2236U, 0x3d83ef8b3e1c4dfcU, 0x3de9b6f23deacc1aU, 0xbd888218be8baf6eU,
  0x3e46f1763eb391acU, 0xbe6f733bbe542262U, 0x3dd9e15e3dd378fbU, 0x3e86f6a53cf4a7d0U,
  0x3e573bd93e345259U, 0xbbe6d1003eb13549U, 0x3ad9ab80bdfea6d2U, 0xbda119ca3c8b24b6U,
  0x3d074abe3ea8bf7bU, 0xbf0f9bdb3ed77dd8U, 0x3e4c044e3e001dc1U, 0x3d6a0a6f3c93c70cU,
  0x3e1e51fd3d04e920U, 0x3e48d7053d629d1dU, 0x3dd971b43e1c6f96U, 0x3ddfb891be0d8bf8U,
  0xbd903c433c365557U, 0xbe607b303d27ecbeU, 0x3d22a4d03e1f7cd0U, 0xbd94af903c4d538aU,
  0xbe6161e6be603402U, 0x3dd878c43d8e4015U, 0x3e07cbe43e0ab252U, 0xbde137703e0a4381U,
  0xbcd06d97bd9e89e4U, 0x3e2700e5be3f5752U, 0xbea1f00fbdb9799dU, 0xbe34e28f3e4e986eU,
  0x3dbc7e233e193343U, 0xbda800113dbf5082U, 0x3e033659bdcfd360U, 0xb9d1b2b0bd6ef02aU,
  0xbdd940afbdc3bf95U, 0xbd22ebabbee4a5d7U, 0x3db38dfd3e13d6dfU, 0x3d695ab7bd55e159U,
  0xbe2857d13e2faffaU, 0x3f288877be5085a7U, 0x3ea38179bd8bda92U, 0x3dccff483ea6dd5aU,
  0xbd506fa1be31cc35U, 0xbe10d5683d068ff8U, 0x3d8e8c0e3e180ef8U, 0xbccabd25bdcca186U,
  0x3e26a5ac3d7dce92U, 0x3d817abfbd82f51cU, 0x3e6e37153d19fc37U, 0xbea2ff45be5c9a48U,
  0x3e267a22bdc41ac6U, 0x3e74da4d3df7d817U, 0xbdc41effbcad49f7U, 0xbe4bbf4bbc6fdb4eU,
  0x3e28f5543e10656fU, 0x3c2635ba3d6c852bU, 0xbd609adcbe9ad861U, 0xbe67bed2be54e590U,
  0x3d57d2b03e1ffbaeU, 0x3de91fdebe648bf7U, 0xbdabf5bfbdceee9cU, 0x3eb1a4103decee0bU,
  0x3b15f9dbbd9f2e61U, 0xbd4153603d6fe94eU, 0x3d3023823d276f56U, 0xbe80fd3e3e0fa6ddU,
  0x3d1e03ec3e4ea251U, 0x3d954c133dd6d99bU, 0x3dd877fbbdccbee0U, 0xbd9400f73e2b2a80U,
  0x3e480d1dbf07ab84U, 0x3d8b23bf3d8f9a8eU, 0x3dd3dfb23f11443dU, 0x3d810d4abec9d5dbU,
  0x3db09825be67d226U, 0x3dc3262cbec47521U, 0xbc9a6a61bdb18fbcU, 0xbd8ff824be6f6be5U,
  0xbeb1e144bc27bf10U, 0x3f049f65bcf2eb05U, 0x3e5a00b2bd81b03aU, 0x3dd29d47bda4b908U,
  0xbeac65063e609fd8U, 0xbca5ed22becdcb1dU, 0x3e2326c63de23fe4U, 0x3d01fe6a3e807ff7U,
  0x3e7c9d37bd9268ddU, 0x3df6b546bdda25d2U, 0x3dfa066abea3c910U, 0x3edd14693e5fe5a5U,
  0xbce4d055be249ec1U, 0xbc8df958be1fe83aU, 0xbda01a2c3dcc1e97U, 0x3db1bb5ebe3c1d3cU,
  0x3d9f61403e4a53f0U, 0x3d037c883ed0d52bU, 0xbecac7ff3d452154U, 0xbe84399b3e2a2806U,
  0xbdc9506c3cf5302bU, 0x3c75bc1f3a3955c3U, 0xbcf57a5cbc89163eU, 0xbe6b6d4bbdec78c3U,
  0x3e1392983d9184b9U, 0xbcc95d57bf12361bU, 0xbcdc60b6beb435d4U, 0xbe1469763c6bef60U,
  0x3d747c45bd78e060U, 0x3ef7dc98be514dbbU, 0xbdcae1a53e01ff16U, 0x3e4cb1b23e37c86eU,
  0x3dd8b9cbbe0492d6U, 0xbe6f3e96bead1ceaU, 0x3e4422703e6db345U, 0xbe4fe3293e31cf15U,
  0xbd1c5cb13dc549f4U, 0x3e891dfebd859214U, 0xbcbc5d40bc8dae6aU, 0xbdfbac4e3e1f9c6cU,
  0x3ddbb4713e2ec255U, 0xbe84e6373e7d3b6bU, 0xbe5ae2703eb410b9U, 0xbd3e200dbed189aeU,
  0x3ec27db43eca0f11U, 0x3e30b75ebcc0ac5bU, 0x3e1972133de51009U, 0xbdb334d13ecee94bU,
  0x3cf4eff63e0512c5U, 0x3e279a2bbe237709U, 0x3d708cc53edaeaabU, 0xbe4447373e4d6765U,
  0xbe10b6283eb6c08aU, 0xbe1052f93dc3e8b1U, 0x3de0074ebd94372fU, 0x3d93f8a0be79ff9cU,
  0xbcdbbcf9bdb0ebdfU, 0xbe01b5dbbe1054dbU, 0xbd55e7f43e8df640U, 0xbdcd7d73bdad7767U,
  0x3cb7b83abdcd47a0U, 0xbd337e0bbd9b59e4U, 0xbeab72a43d592860U, 0xbdc64a543e92b826U,
  0x3deaa1cabe7bdd89U, 0xbdd802683d27e5cbU, 0x3db2d4d03ddceb9fU, 0xbe2a2d733d850e6cU,
  0x3e02bc47bd104b09U, 0xbc42cb3a3ec27d8eU, 0xbdda9154bdaf0a31U, 0xbe98758e3ccbdb74U,
  0xbe81e6573da8364fU, 0x3d964cddbc1de2e2U, 0x3d8667d8bb811068U, 0x3e25c1dcbdcc268bU,
  0x3e24de083e900042U, 0x3c1452bd3a95d1d1U, 0x3e12d7f4bdd50ea2U, 0xbe03b13d3e6a308dU,
  0x3d0cf4a4bce8d100U, 0x3e037f5cbd2b6bb7U, 0xbd6d7890bdaef0c6U, 0x3db049783d9bf62eU,
  0x3c84b332bd8a9be6U, 0x3db88cb1be0b26c4U, 0xbee6c103bd5a6628U, 0x3d156e0fbe4737b4U,
  0xbe2a6798be2f6b94U, 0x3d7ad6d3be6d8b9bU, 0x3e2120a33d69ea37U, 0xbe2d389bbd5bf205U,
  0x3e3aa4dabeacdc82U, 0xbda41002bd560a28U, 0x3e1c4e993e863c0eU, 0x3aad0800bc51d111U,
  0x3d9aacb23d87cd27U, 0xbce15f4b3e955421U, 0x3c3a47943b8340d9U, 0xbe0b9997be2e7848U,
  0x3e1fe7523e2e83e1U, 0x3efb3e033decf513U, 0x3e1bbb04bdb36d20U, 0xbe12db9b3e320fb5U,
  0x3cc360a03dc7517cU, 0xbe1265ac3e9db3aeU, 0xbdb84657bde1554eU, 0x3d29eb383ed4f5d9U,
  0xbe2a76ab3df10202U, 0x3e2bacecbdc45a2dU, 0x3e28f32cbc883cd2U, 0x3d2f9fc53ea2d4e1U,
  0x3df5cb9b3d983b6cU, 0x3dd2022cbd32a093U, 0xbe0100d33e29d161U, 0x3d57f61ebe388325U,
  0x3e0801273e0fbd60U, 0x3da3356abe6bf3eeU, 0x3e8736dfbc9cd638U, 0x3e85a5bf39fa22d2U,
  0xbca635ddbd3a6530U, 0xbd8f3890bc8f1102U, 0xbcc55aa23d4744d5U, 0x3e1726403daaa616U,
  0xbd92cc57be748fd6U, 0xbe2ecef6bdb175fdU, 0xbe3e79983defa292U, 0xbe36148d3d74f7bfU,
  0xbe2aa47a3d511b20U, 0x3e277fbc3d73be7dU, 0xbde3bc5abdfe736cU, 0xbe27cd4e3e2fb4d2U,
  0x3db81ad33db15765U, 0x3df2248ebe412f7aU, 0xbcdb6f28be3d7150U, 0xbc69f469be028733U,
  0xbdadc034bd2120c9U, 0xbc5b1aaabdefcdbaU, 0xbc685ec0bd4b42f6U, 0xbe25b1643db1330dU,
  0x3bc9625cbc6593aaU, 0xbdc86314bd4e7f29U, 0x3cc16647be3a1e50U, 0xbda05bddbe403a5cU,
  0xbdb53b873d037cc8U, 0x3d2f06603e08319dU, 0xbcf356c5be3d5a75U, 0xbe4277dd3e1dea3aU,
  0x3c1c07dfbcfce297U, 0xbd3e93edbca6fde0U, 0x3ba748e8be25089eU, 0x3e2680aebe24bb42U,
  0x3d9891143d9a8ed4U, 0x3df43fbf3cc7fb71U, 0xbe1ad0453e05a53bU, 0xbe03dc5cbde84464U,
  0x3da748463db2f89bU, 0xbe10c7163d2e3254U, 0xbe2d6b3fbd51ed8eU, 0xbd81fd2cbd937620U,
  0xbd2624bb3d17d8ccU, 0xbe405a483e0812f9U, 0xbd5bedac3d8406e4U, 0xbd9343d7be1fba11U,
  0x3ce9adccbe4c2040U, 0xbe1f801dbde6fbffU, 0x3e03a3fd3e1a396bU, 0xbcbd15663c14c743U,
  0x3d2fced23db6f18dU, 0xbd6ab9dbbe3495d8U, 0xbe1adb02bcb7dbffU, 0x3cdf2334bdbf5764U,
  0xbd2ae5dbbdebb073U, 0xbdfc92933d0d3edfU, 0x3d43c997be11c1deU, 0x3dcb4fd83d964a84U,
  0xbe1aefddbd8269ddU, 0x3cf1bf39bd836734U, 0xbe2050933ddec9fcU, 0x3e2a67d93e310074U,
  0xbdcc412fbc09c720U, 0xbd459c80bd1a19dcU, 0xbd2970733cbdea28U, 0x3e240a8e3d381894U,
  0x3d1d10a43c032e23U, 0xbca45a60be0a8242U, 0x3df2624d3dd40410U, 0xbe1ec610bc1b2f06U,
  0x3c851420be1332eeU, 0xbe04d2c53cd01934U, 0xbdd0df823da1e59cU, 0xbd43e420be46a0daU,
  0x3d39ce183d02e7a3U, 0x3e15377cbdb0721cU, 0x3db4e998bd930dbaU, 0xbe00d900bdbe01fbU,
  0xbd21c4da3de5847eU, 0xbe19c1b03cb853f1U, 0x3c2f286d3d73ccc2U, 0xbe2bc0f4bc8735deU,
  0x3d890f883c90b560U, 0x3daac3603c96cf46U, 0xbd4aade9be0ba13fU, 0xbe2ea53bbce22fa1U,
  0xbc969b173d3d8f1eU, 0x3e06acb13ce3febaU, 0xbdfba320be34af6bU, 0x3d8beb3d3d79dee4U,
  0xbe298df7bc7a6790U, 0xbe00592e3df8dddfU, 0x3dcf1a9bbe106584U, 0xbcef4f953d9a4e10U,
  0xbdb26f55bde79ce2U, 0xbda48aefbdcd64adU, 0xbe0e8684be26d2ccU, 0x3e126b9abc54b396U,
  0x3dcce7ed3dedea5fU, 0x3b53db53bc6e47baU, 0xbcd798eabc88a16dU, 0xbe13cc11bdd812e3U,
  0xbc5e852bbcbc918eU, 0x3df690fe3d755b38U, 0xbe00d846bd864829U, 0xbdf49ebcbe181804U,
  0xbd21c9943e167f3dU, 0x3dcfed4bbd6efcc3U, 0x3c78f33b3ed1c9c4U, 0x3e359452bcba93f9U,
  0x3e1b05053e138df9U, 0xbccd3bc3bc82d50fU, 0xbe05f030bdcb3365U, 0x3cba5dc23ee7de09U,
  0x3ef4b06e3ea5184eU, 0x3ddfc1d7be3d9e44U, 0xbe3e54613d0f7a24U, 0xbd56c81b3e540252U,
  0x3d98886b3c80bd5dU, 0xbe07fc8dbf2c1938U, 0x3df008b83e305ef5U, 0xbcf702aebec2a0fcU,
  0xbd038596bdd52d27U, 0xbd9d4cf13e528394U, 0xbe42de80bdf556a2U, 0x3daa210b3d9ab8fcU,
  0xbe56ff7c3d90e47aU, 0xbc5ca6303df527a7U, 0x3e1c40473da94d28U, 0x3ddb3148be4ace9eU,
  0x3e3e366a3df39ad7U, 0xbe03f6aebc1d29b5U, 0xbdd1f0af3df8d028U, 0xbe901e72bdfe4afaU,
  0xbe3a23163e90ce2bU, 0xbc46e8d3be3bb537U, 0x3c77b937bdb57f61U, 0xbd9e9011be0b3fd1U,
  0xbdf4c4e8be924a39U, 0x3d113ea4bdb3283aU, 0x3db0aec3be6b6d57U, 0xbda3ad263c25c81bU,
  0x3dd755253f2e1373U, 0x3e049f99beb44c2cU, 0x3e43899dbd1769e8U, 0xbd9b0f22bebc734fU,
  0xbdb7b8abbe02f1ffU, 0xbe7874f9be811781U, 0x3dd37483be034968U, 0x3dcc03203ed02258U,
  0xbe46e43ebca46ef3U, 0xbc3cc1cdbe68ef8eU, 0x3db96aa63e71e3aeU, 0xbe19134a3cee8140U,
  0x3d9686ccbe1cb36fU, 0x3eb080a83e5d01ccU, 0x3dc56ea7be1af85bU, 0x3ef7bbbcbd1a0bdcU,
  0x3c7239ac3e1267f2U, 0xbc9a9e78bda2503bU, 0x3d12c063be110f59U, 0x3d2ded51bdad4fdeU,
  0xbe30834a3d4b3674U, 0x3d1c5a773866c292U, 0x3dfd29d1bd20edd4U, 0x3e28ca1e3d14df7cU,
  0x3e1b0271bdc6fda0U, 0xbde12346be321027U, 0x3e057821bc44ee4aU, 0xbd69b70dbdbc60b8U,
  0x3db0d77cbd9764c2U, 0xbd1a27233e0c3c8dU, 0xbe1ad8cbbd3b9bb9U, 0x3dfec395bd7cf225U,
  0xbdd17f75bd926753U, 0xbd7e66fbbc8447e5U, 0xbe0d09ad386d7000U, 0xbe0ff12abd0657bfU,
  0xbd064b0d3dbe6752U, 0xbe1a1d33bd0fd20cU, 0xbdb766e6be1dfa21U, 0xbe3bb7053dfdba08U,
  0xbc8731b2be1af269U, 0x3e4d57d8bcc20a88U, 0xbc5837babe129512U, 0x3dd8ef483db57c26U,
  0xbdbad5b73de8d463U, 0x3e19ca21be262184U, 0xbda0e6bebd90e5d0U, 0xbdc37ad93db340ddU,
  0xbde4db4a3dd89814U, 0x3df09ae4bcce000bU, 0xbccfd0503df42262U, 0x3e2bb0d2bda49e23U,
  0x3d0bc310bde7340dU, 0x3e29033abe0d3cb5U, 0x3d8587413e25b8eaU, 0xbc61eb37be11f870U,
  0x3cf98d0d3e1310a9U, 0xbe249062be1dc3baU, 0xbdf5f456be44ee98U, 0xbde81b4d3e1575fdU,
  0x3d86b704be1d637cU, 0x3e0506f4bdcc8842U, 0xbda714e63d9039a6U, 0xbd3d90bfbc265256U,
  0x3d962c28bd549e6eU, 0xbe25386e3de47508U, 0xbc49f9fabe4d2b82U, 0xbd48519d3cf1e337U,
  0xbf028d6cbd1e373bU, 0xbd3c3b1a3e2b8966U, 0x3e2a89163ccc88d8U, 0xbe7ef1a73e5e9747U,
  0x3c5ecdba3ed98389U, 0x3e6a32d73e985878U, 0xbe42f3bc3e4b43b1U, 0xbde5d71bbe394efaU,
  0x3e8bd56d3e84cd31U, 0x3d339a7ebd211c0eU, 0xbe2f92783da68199U, 0xbdeecac93e4ea062U,
  0xbdc6b95d3d5bda2dU, 0x3ed1fa613dd5c61fU, 0x3e0fa5da3d252631U, 0x3dac43efbbbee9e0U,
  0x3e608781bed71645U, 0x3da0340cbe44a863U, 0xbd19dfab3e38b8c1U, 0x3e07e7a1bdb7e271U,
  0xbe321ee63b7b07edU, 0xbd0c1faf3f0942e4U, 0xbe76d086398eab61U, 0xbd54e1213e5ada4bU,
  0xbda8f1d2be0c4e18U, 0xbdeed25d3e6db575U, 0x3d7bca42be15a423U, 0x3df48d5c3e3920e5U,
  0xbd43b35e3e3021b3U, 0xbca0bf283e2047d1U, 0xbdd0fcbd3ec17626U, 0xbe7d1d8e3c73784aU,
  0x3da9eb693f028b99U, 0x3dbfc7f83e0cbf6eU, 0xbd422a9abd442fc0U, 0x3dd390b43ea9a852U,
  0xbdd981273e4b885fU, 0x3e046a43bddff3bfU, 0xbd3c82d7be5ac8daU, 0xbd004b9fbee2a2e4U,
  0x3d7bd7063d8f2d05U, 0x3d62150ebdcbd41bU, 0xbe0e74d93ca8e3e9U, 0x3f1fc7543eb7d3b1U,
  0x3d3c659f3ccfd654U, 0xbe28c4dc3db6199aU, 0xbe0ba7f1bd7dde61U, 0xbef5d2a3bed47f52U,
  0x3bbdf342bef0b807U, 0x3df20c593daa26b1U, 0x3dc3fe443d395635U, 0x3e3752e7bd6e192dU,
  0xbdbf55353dc5bdd8U, 0xbe1352673dfccd0eU, 0x3d9bdc163e718517U, 0xbd03d01c3e9096b6U,
  0xbde18c35bdc85d6fU, 0xbbec3911bd1a546cU, 0x3ea75b1e3d86a234U, 0x3e205d32be1d047dU,
  0xbd35d2ec3e67d564U, 0x3c8c14723db77edfU, 0x3e2618723d59dd66U, 0x3e0f63823e021b78U,
  0xbd08578f3e9dfc4bU, 0xbc9e4653be33259eU, 0xbd6912debe31daabU, 0x3cf32e803d4ccc60U,
  0x3db01c993ddfe6c1U, 0xbdea63febd228637U, 0x3dd18e013cddaff9U, 0x3e33ad873d44d1feU,
  0xbeee16ab3ddd8a92U, 0xbd429d0a3ce4537bU, 0x3d9cd321be67bbf0U, 0xbcd7fd343cd8c141U,
  0xbe0a93b53df819e9U, 0x3d9272933d8c759bU, 0x3dc7a08e3e2b13a9U, 0xbd403c56bebe5c37U,
  0x3e67f5e0be6caa4fU, 0xbdd97b8e3dc09651U, 0x3d52c9a63e9e111dU, 0x3e78ca23bdda9835U,
  0x3e0bf90b3c2e0f70U, 0x3d97f48f3ea34498U, 0x3dd73ae7bdc8e06bU, 0xbe09efe63e0d3820U,
  0xbe6e2930bdb45144U, 0xbde4ff4fbe88b846U, 0x3d683d4e3df90ca6U, 0xbe8d5a3b3db30956U,
  0x3d15f09cbe001d56U, 0x3e9f121a3c4ac8b9U, 0xbe2a025fbcd461dbU, 0xbe239ebabe0e9219U,
  0xbdb78dae3e64da9fU, 0x3d70d3853afb9099U, 0xbe066d1f3e007037U, 0xbbe560c2bd9fd073U,
  0xbdef6c0e3e3575c7U, 0xbb006ab03d8c0a1bU, 0xbd795fd8bca86fc0U, 0xbdc1a64ebd2b02e5U,
  0xbcbd74cdbd239b0cU, 0x3d869f313dd7106eU, 0xbda0397dbdda36d8U, 0x3d0d2858bdcec04eU,
  0x3e1bda8ebb709e61U, 0x3d2abce33d9372eaU, 0xbda114aabdc2d5f9U, 0xbd153a66bdb4bf45U,
  0xbe232903bd84a131U, 0xbe308d453c65b655U, 0x3e0d22773e51fc9bU, 0x3da30b363d8bc8f7U,
  0x3d2ae3d1bdfeab71U, 0xbe1516c2be03d850U, 0x3d03dbe13d493ef1U, 0xbc98fbb73dcd3c06U,
  0xbe1220f33e246470U, 0xbe2e3a3ebe46fabcU, 0xbdf9ee313ce0fa13U, 0x3c8ddb2c3c7a0086U,
  0x3dd357cebc8943b9U, 0x3c3a6790bdfd8f89U, 0x3dd725773ddf4097U, 0xbe34589c3e097705U,
  0xbdc7ccf5bd835d78U, 0x3d8df5f53d590636U, 0xbe4b25d8bdac6330U, 0xbe113127bd02f795U,
  0xbe24c8e5bdb34ef1U, 0x3d7214cb3dbcf12aU, 0x3db734b43d6c0614U, 0xbe0f0c2abc93353bU,
  0x3d8382e2bd24106fU, 0xbd6f2d4dbdf4b241U, 0xbdcae5853d3dea57U, 0xbe326b663d1f3f89U,
  0x3dc130253e46a283U, 0xbadf37b2bd04a87cU, 0x3e106bcf3df81c74U, 0xbde97713bdde0cdfU,
  0x3e08795a3e3d0df2U, 0xbe12e8643d0b7e57U, 0x3e034768bd6c5c94U, 0xbdf2bc9c3c75eca5U,
  0xbe19b5f33dab7cd7U, 0x3e2d58e33c71ed18U, 0x3da80e48bdbdd2cdU, 0xbe151a283c198a91U,
  0xbe0ad3313d3e1360U, 0xbd2131a03db81d4dU, 0x3c14cc24be062cb4U, 0x3d48690bbe0de004U,
  0x3d015cf9be0d55b6U, 0x3d60e2f5bdecfa61U, 0x3d8cc4773d8e51f1U, 0xbdb64486bd436d6bU,
  0xbe0348b9bbdf4522U, 0x3a9172263d97cbf0U, 0x3dfdc81d3e1ad607U, 0x3e12b1373d14b133U,
  0xbdccc5f53e4f0c7aU, 0xbd401e693d4fd604U, 0xbddc0fa1be15e5e8U, 0x3c7bfd603bf5d274U,
  0xbe0c780cbddb828aU, 0x3ba86e4ebdb327f1U, 0xbcd1daf3be3d4932U, 0xbb48173e3e153866U,
  0x3e0642f9bdb30793U, 0xbe1598473d8f2455U, 0xbba0b15b3dd35053U, 0x3e31ea3fbe538971U,
  0x3d27e23d3e13b169U, 0xbdec19993d530a51U, 0x3d42eb09bdb2ca44U, 0xbdcfae393e04c710U,
  0xbe18735b3e2ec50eU, 0x3e2d87823df616fbU, 0x3e18022fbe5a8186U, 0xbe2eaf78bd188001U,
  0xbe1ae3cb3db5c14cU, 0x3e2a11debdc1df8eU, 0xbc3a9aacbc8d4ebdU, 0xbe403f10bdd8ecdaU,
  0x3e017dfc3dc2c564U, 0x3e0d103bbd6a914aU, 0xbb87fc93bdcdc5c8U, 0xbdff23c03df9d754U,
  0x3de8b5543d176f74U, 0xbcdf996e3de52626U, 0xbcc4fd523d5be54aU, 0xbdc03fd73d2ef731U,
  0xbdcbc1c1bd090bdbU, 0xbdd7210fbdd02aa8U, 0x3dd892dc3e611624U, 0x3e1dd5ea3e0faee3U,
  0xbda774e63d661290U, 0xbe2997dd3cd38078U, 0x3d623e84be084993U, 0x3e55d788bd5d6218U,
  0x3de9a755be793e63U, 0xbd50910abe9e2f38U, 0x3d40ea633d2ea00cU, 0x3e9944bfbdb0c1e8U,
  0x3eb87ade3e43fd34U, 0xbde964e03e635119U, 0x3e30ee70be47a096U, 0x3db47af3be2b65ddU,
  0xbeb4771cbd835534U, 0x3deda4a5bde9d9fcU, 0x3e284a5cbd4d4fb5U, 0x3c2ecea6be10bd0cU,
  0xbec453023e75d6d6U, 0x3d70e1f03e2e931eU, 0x3d30c2173c6cffa2U, 0x3daec93fbf02b727U,
  0xbd5fbc5b3c8428d9U, 0xbe1bb1e5be736b50U, 0x3d9052823e8c5b50U, 0x3e8fb253be71771dU,
  0x3cbe7d35be84d610U, 0x3d904d80be0342eaU, 0x3e489f1dbd251332U, 0xbdef96703e5b5ecbU,
  0xbd0edbfe3e283d4bU, 0xbe30fd353d1fe4d4U, 0x3d8d673d3f0da940U, 0x3e91ab333db8554dU,
  0xbde449acbe257928U, 0x3f22cc9a3d366d22U, 0xbe61a8663d373bc0U, 0xbd18f211be7da56cU,
  0x3e184653be5de5dcU, 0x3d1dbbc93e851ab0U, 0x3d2055d2bdad0c05U, 0x3e4a856b3e9b2414U,
  0x3e32da983e7d6195U, 0x3d0c57b2be1e7357U, 0x3db176f43dd647c3U, 0xbdf61b69bddec093U,
  0x3db013b1bd9e4a61U, 0xbdf4bae63dd5b483U, 0x3e0520e1be49c8b3U, 0xbd6887353e88d79fU,
  0x3e0908f1be672c24U, 0x3e17a5b93e076f28U, 0x3e30fcff3dc5d1aaU, 0x3d93f4b9be12c17cU,
  0x3e05a17abd86e4e4U, 0x3e63c46abca1c058U, 0xbb73858f3e243beeU, 0x3d890f4abe9058cfU,
  0xbd93eaabbd501b70U, 0xbe713ce7bd10f130U, 0xbe5f74a2bd3fadfbU, 0x3d9e990e3e3d9658U,
  0x3e11b144bd9ea378U, 0x3e1f86213e2042a2U, 0xbe0148ef3dd15e86U, 0x3da76c43bddc66b7U,
  0xbe2de6113ec7e274U, 0x3dbc2d7bbe37caa0U, 0x3e9be36dbc843db4U, 0x3db2dabcbd1874a0U,
  0xbddbac483dd6b441U, 0x3e0a9603bed6fe06U, 0xbdd9b87fbe07a9d2U, 0x3db20fd1be88d908U,
  0x3e6b443a3e729890U, 0x3e1cf4443e2f5139U, 0x3deadb1c3cc47fe6U, 0x3e029f78bdf5eb16U,
  0xbae61c10bdeda37fU, 0x3dbd01e53da879feU, 0x3e02f7493d8c1511U, 0xbda3dbe8be6300fcU,
  0xbe0b71353dcc40beU, 0xbdba0fd1bdc697b9U, 0x3e2acfb2be1edf7eU, 0x3b24349b3c424e77U,
  0xbe34cfde3e0009c0U, 0xbd79cd703e9cf498U, 0x3dcb7b3cbe1261ceU, 0xbd25eca93ddcac58U,
  0x3e053b8e3dccbb8cU, 0x3db9cf78be7f7fedU, 0x3dcbfe233da589a8U, 0xbd585624be1ac9c3U,
  0xbc092c4c3e3ee69fU, 0xbd291b073e708ca3U, 0xbd5f3048be22bea6U, 0xbdc2b5633d7212dcU,
  0xbc543816be58a288U, 0xbe4362323d0da4c9U, 0xbdbf8163bd2119ccU, 0xbdfb33bc3e4783d4U,
  0xbd08fd16bd7d66c7U, 0xbe705ab23e8f3082U, 0xbddbcd333e1de274U, 0xbd5a37f13d34ee7aU,
  0xbdd4f000bed9ad39U, 0x3ec14cecbe4d8c29U, 0xbe8456663df6c02aU, 0x3df4530fbea41f90U,
  0x3e9afbda3db88355U, 0xbd96d21abc9f604aU, 0x3e09a68abe4e3f94U, 0x3d9bdacf3e35565cU,
  0x3e1c5062be23180cU, 0x3e4e537c3d7906c9U, 0x3d9ebe58be3954eaU, 0xbbfc758f3e43897eU,
  0xbcdddc4ebe3d2ba3U, 0x3da7416cbe201ab5U, 0xbc9c2d23bd15a7c7U, 0xbd429ef4bf127a6dU,
  0x3e5fa536bcdbbba3U, 0x3e21d7923d21670cU, 0xbdbb08873dc50ad8U, 0xbd2ab66dbe792562U,
  0x3c0941a3be26530fU, 0xbe94cd0e3dfea10cU, 0xbdf991d53e57dc96U, 0x3dc8b0df3e13c6f5U,
  0x3dc3ec0a3e7301f0U, 0xbdf6a5b5beac13b9U, 0x3eb40187bd2e5b40U, 0x3ea03af9bd869868U,
  0x3e0fb2553e912ba1U, 0x3ee47a553d8f527bU, 0xbefa14893dd4ee70U, 0x3dc2b7ec3d469babU,
  0x3d87f08f3b8cfb64U, 0x3e74143e3dd084d5U, 0x3db191cc3e27072dU, 0x3d855421bea2a85aU,
  0xbce6f766bcf183eeU, 0x3d922b1dbe4c61c6U, 0xbc9cd6183dfff0c3U, 0x3e8fb6cd3e82f4b4U,
  0x3e3ab66d3e29d1f1U, 0xbdfb8941bd8ad30dU, 0x3d19ac59be85950cU, 0xbea54c3fbd6d4e72U,
  0x3d43ddce3e98e61eU, 0x3d974a26bd9d2c31U, 0x3ee9bfdf3e14da04U, 0xbe97ef483d39e89cU,
  0xbc04ba503e1e4bdaU, 0xbe8180a53eda6e37U, 0xbaeed7473e652e27U, 0x3ec139c63e459ff7U,
  0x3e7fc4c93d94d9d3U, 0xbdaaaa0abe6acf54U, 0x3ce7bb09bec6d7a2U, 0xbee2fcf03e1eedecU,
  0xbc84d9c8be4e08b1U, 0xbd96afff3e1e1592U, 0xbccb00bf3e979dc2U, 0x3dbb50ef3c027450U,
  0xbe1f5ed43e426bb2U, 0xbc3158b33dd9970aU, 0xbe9bfb0fbe6cf3deU, 0x3d19c020bd9f8790U,
  0xbe5be1e13da4d03dU, 0x3dfde9fa3eccae73U, 0x3dab9340bdae90a5U, 0xbe76b6f0bdaffa12U,
  0x3f1f49b03e4b9d3bU, 0xbe06ff203d8f0ef8U, 0xbde3ce243c83ddd5U, 0x3e466c39bd80e9d0U,
  0xbe22e35cbd77c136U, 0xbd0b880b3d0b4f6dU, 0x3ea082923e65b8c5U, 0x3d0a18e1bdae0ec6U,
  0xbe195ef73e494469U, 0xbe29382f3e5bab5bU, 0x3cb07b3b3e0c01f9U, 0x3ed81d173c345375U,
  0xbe118a3e3e1ed094U, 0x3da741a83d13b90dU, 0x3db931af3e2fd271U, 0xbe778f57be5fa480U,
  0x3ed58483bd8abd3fU, 0xbe4aea3d3e24c1b9U, 0xbdf7da88be04ca47U, 0x3b86c3373dbb3762U,
  0xbd9ae19bbda07c83U, 0x3e06aa5f3da4062aU, 0x3eacff02bb9ebc48U, 0xbdc98d65bdf3f4acU,
  0xbe3cde6d3e9cb000U, 0xbd14cae2be6aa52cU, 0x3d6eee8b3dfcd628U, 0x3d0cfa5abdf1c31eU,
  0xbe5127903d8ad093U, 0xbe4ffbaabd98da8dU, 0xbda70d013e1806b4U, 0x3d53a97d3d9a2f06U,
  0x3e354fd73e079d9dU, 0x3d062625bdd96e65U, 0x3dc02c8a3d7dce50U, 0xbd867daebe77e4a4U,
  0x3e472c60be7544d1U, 0xbe28f826be758264U, 0xbd70212abe5dcb14U, 0x3d25500abdf7cc01U,
  0xbe5fc03abdfce965U, 0xb939cf5bbcb514fbU, 0x3e0488fabd1e77c4U, 0xbe738b363d2518c1U,
  0xbe3681c7bd5b66ccU, 0x3e2e33f4bd348da4U, 0x3d858ccabdf1eddcU, 0xbe283d25bd5ebb38U,
  0x3e23f9f3bdb49549U, 0xbd4791ffbe0ae616U, 0xbdc65b90bdbe5e85U, 0xbc0f99babd989955U,
  0xbb99857abe342816U, 0xbd18d0993d06768eU, 0xbe3e9dc3bda520d6U, 0x3e08706d3e3378a5U,
  0xbe5c7415bd09672fU, 0xbde9b656bddef6d0U, 0xbe48b9473d9974c0U, 0x3dd98cc2bddbc094U,
  0x3d0498bebdb57f45U, 0xbd8e28f43ddaaf5dU, 0xbe7b77a1be2ccf4bU, 0xbc2a35d3bd51f1c3U,
  0xbd916dd1bd028908U, 0xbe27e840be70389aU, 0x3d5bc38d3dda04b9U, 0xbe0559d3bd7fadb3U,
  0xbb8e6ae3bd95d4eeU, 0x3de79839be4b92c7U, 0xbe0553323cf9677cU, 0x3ddf5d7dbdf6a7ebU,
  0x3c6ba552be49ea5fU, 0x3dbe0fdc3d982483U, 0xbe3831b93e836eefU, 0xbdbc09a7be08c7a0U,
  0x3d874347bd96d3edU, 0x3e92f0dfbe0b5d3cU, 0xbdfa93a5bda8cd1cU, 0x3d520dbd3d84535eU,
  0x3db8ca38bd9a02b2U, 0xbd8a065cbe6409a4U, 0xbe148bdbbf04ec99U, 0x3d4580923d115a3aU,
  0x3e811963bc1997baU, 0x3e83043abe12cd0fU, 0x3f0f65303caf13daU, 0x3c22e1663df5799dU,
  0xbcd34e083e1ce796U, 0xbc58b29cbe5cddf7U, 0x3db03da43e05771cU, 0xbdcc8ba43d1575f9U,
  0x3e2084d3bdc8eb08U, 0xbe9ed2183e28737fU, 0x3ca336103e019356U, 0x3dd33eb83db6df78U,
  0xbd5ad6573db2cb84U, 0xbddff7233e928790U, 0xbd2f73053e138e1dU, 0xbd6525813e840e8fU,
  0xbc3702203da07141U, 0x3e3a6b45bdb44eabU, 0x3e1d1584be4ce1d3U, 0x3e2a752a3e2b8661U,
  0x3e761a40bd9f0d91U, 0xbddaf4f7be65dda2U, 0x3c890222bdd274faU, 0x3ce73d24bdb36633U,
  0xbe1ef0e83e9f05caU, 0x3e0f78b4bdd3aca2U, 0x3dffbbe1be4cd941U, 0x3dbde0033e94ee5eU,
  0x3dd23907bd4a0dcaU, 0xbdb9b6c0bdbe0403U, 0xbd274208bdb972eeU, 0xbdd713a83e95b4e4U,
  0x3d8c745ebdd53a5dU, 0x3cbf08e43ec2d160U, 0xbbfa4ccc3c9e5b25U, 0x3e1c3d07bc6e3f85U,
  0xbcf6ff8cbdcc5d66U, 0x3e9833533dee62a4U, 0x3d32613f3df3577fU, 0xbe14078c3dd18746U,
  0xbd818ae93e562b18U, 0x3db03c7b3e94b6caU, 0xbe0af35cbe912577U, 0xbc0deeafbda50d13U,
  0xbe64d37e3e395b0bU, 0x3e2aeecb3e0e7012U, 0x3e08214cbd6d6340U, 0xbd1590a8bdf07d33U,
  0x3ddcc5df3e9fa3d6U, 0x3ce739a53d9395a3U, 0xbe4e3d823e2faf5aU, 0x3d3e5dc0bce5ff52U,
  0x3eb4919ebd914a4eU, 0x3e165e223ddbd196U, 0xbdf31a14be0814cbU, 0x3d1a171e3e81de26U,
  0xbdb5db3bbe2f61c9U, 0xbd171b5e3d90b78aU, 0x3cb23398bde00056U, 0x398ecf073ddc9988U,
  0x3ddd55c6bf05ff0aU, 0xbe0cc51dbe2a513dU, 0x3e1cb6a1be0bb241U, 0x3d0977783da0e521U,
  0x3d4cc72e3dd6f6ceU, 0xbc1be3a53e651184U, 0xbf1326203eb1b076U, 0xbdfbdc1bbd5c5207U,
  0x3d35788bbdc3d3e2U, 0xbde12b383e0e2fc3U, 0xbe2180583d066843U, 0xbd84a7983e711bf9U,
  0xbcb32a2c3daeaaa3U, 0xbdc758e8beb5c2e3U, 0x3d4e2e853e40d839U, 0xbd8d3a8c3e1a0bcbU,
  0x3d1fcfc13e4b505aU, 0x3ebf3ff4be30d935U, 0x3d0c8c1cbe281439U, 0xbcbef7203ea3773fU,
  0x3de42668bcf4b25dU, 0xbe45d3913cfd3911U, 0x3dd074f03e41f867U, 0x3e44f3a0bda129e2U,
  0xbe14464cbc3504d1U, 0x3cb46d74bc58de48U, 0x3e482d7f3dfab188U, 0x3da336063dbec068U,
  0x3d89f0d7bd9f9eecU, 0xbdbe27ba3de7d2d5U, 0x3c9b30ba3e1a81ddU, 0xbed2a43cbe39ac58U,
  0x3d8f1e8c3de50178U, 0x3e478c30bdc14da3U, 0x3dfb4ebc3e716740U, 0x3e00599bbed10659U,
  0x3c99edb83e27401cU, 0x3e17b9553d6bf17eU, 0x3db9980dbe87fb01U, 0xbf043f6a3d8eb6aeU,
  0x3ee00b7f3e800e47U, 0xbe78408c3e1f0931U, 0xbec01173bdefe552U, 0x3e59c8053e2eb634U,
  0xbc0ddd703e180d15U, 0xbde27e4abe293df4U, 0xbb83cb483d2edf04U, 0x3cf285383e4c268bU,
  0xbd8d8ff83edf93b8U, 0xbdaaa437be2f4d9eU, 0x3e6127133c92bdb4U, 0xbe064b083da08d3aU,
  0xbda03e9c3d8d5ec0U, 0x3e06e0ac3d450508U, 0xbe3c09283e1e3034U, 0xbe54ef6cbe5a4b8dU,
  0x3e493b5f3ed7a00bU, 0xbe8ce9c43dc90b4eU, 0x3df68ed03eca144cU, 0x3d8c0e5abdab6027U,
  0xbda9aa80bda4553fU, 0x3e296b49be12291cU, 0xbde271983e146f80U, 0x3db2842cbdada00aU,
  0xbdaeeea83deb3727U, 0xbd1a860fbdd0dd1fU, 0xbd2ad7dbbf22ecbaU, 0xbeccadf2bd2c37cbU,
  0x3eb12a3e3e011020U, 0x3e1ea758be34d596U, 0x3c5ad474bed6baefU, 0x3dddd9cb3e436d0cU,
  0xbe21898a3e21384eU, 0xbdb91b2cbbf53a9eU, 0x3e2c7b543d4540d0U, 0xbd575bb43dc2270fU,
  0x3e63f7f43d35bb11U, 0xbeafa70b3ce6739cU, 0xbce82d45bc78229aU, 0xbdd4b0023e565161U,
  0x3cad5cd43e030ac0U, 0xbc97f76b3e144890U, 0xbd4bcd4dbc18362aU, 0xbd879ca53e097f82U,
  0xbdc88d423e3306a6U, 0xba10e848bcd85f53U, 0x3defa16cbc805c48U, 0xbdf86e25bdfc0805U,
  0xbe269ec3bd1be40bU, 0xbc0c1a69bd67fce8U, 0xbdc9a7eebbddd368U, 0xbbeaa3683d6aba80U,
  0x3e2fa62cbc4659bcU, 0x3d940b8b3e562f37U, 0xbe2b3e42bd78fe94U, 0xbe1bc7eb3c18ccdeU,
  0xbe6e25ea3d9e840fU, 0x3ec415b4bd009200U, 0xbb7cecf6bf0327c5U, 0x3d824d4f3e1ac9f7U,
  0xbf178be03e3ec21dU, 0xbe29b7d03d9e733fU, 0xbe0cf1f93e7f86d0U, 0x3dce66593d9b500bU,
  0x3d0102163e2ca913U, 0x3e639447bd470e0bU, 0x3d1e6865be56f5beU, 0x3e81a4e1bd8a1ecdU,
  0x3ba80f2cbe43fe12U, 0x3e14da5ebda80c75U, 0x3e12fa4c3ddb91e7U, 0x3e3bef923d87aaa7U,
  0xbe0478443e4571baU, 0xbddb45d73eb221efU, 0xbe93f587be975be6U, 0x3e252e913e4a488aU,
  0x3e3ac57b3d3587afU, 0xbe8148313d2cf476U, 0xbe84a3c73d0d5950U, 0xbc1c98243d47b59eU,
  0xbdf02da5bd876990U, 0x3d94eb783e7c738dU, 0x3dcbd625bd861d88U, 0x3e3c958e3e30d9c6U,
  0xbe8d705b3e0610ddU, 0xb99293d63ce57a4aU, 0x3de52102bdb09418U, 0x3e1518f73e2151c1U,
  0xbd8e7fbb3e0c48aaU, 0xbd43a55b3dee822aU, 0xbda864d33e1bdf33U, 0x3e0da3d63e7c9189U,
  0xbd5a9f703e06ceafU, 0x3df0ef43bc381a15U, 0x3e08002fbcf03bcaU, 0xbe84e3df3e49101dU,
  0x3d172ac8bd654e72U, 0xbd65e905bd9ee3f9U, 0x3ca51de6bed85fe2U, 0x3e7fb5003e817b41U,
  0x3c3ad6f7be217a14U, 0x3e4565e6be72aae8U, 0x3eb0924bbe7341bdU, 0xbc0d1aedbdf34c76U,
  0xbd86b1d7bc2f33a2U, 0x3cfb67e7bde32696U, 0x3c86fed1bdd4cb33U, 0xbdd45452bdb07d39U,
  0x3e8bcfd1bedb2760U, 0xbea28623bdd55711U, 0x3db622583de82eebU, 0xbcf78620bdc2b79aU,
  0x3e081b593d672438U, 0xbe7c69393dbc70edU, 0x3e9fff2bbdf0897eU, 0xbd66675b3dfa17c0U,
  0x3e04fceebe975b48U, 0x3e0df65bbe0f18bbU, 0x3dfc82b2bdc3638cU, 0x3dccde153dac1c9bU,
  0x3e0e7197be011feaU, 0xbb168f3b3d45639bU, 0xbe367520bd3fc6feU, 0x3e00a5643ee0f4a4U,
  0xbd9f5cfe3d68c2c4U, 0x3ec0a967bd75755dU, 0x3dcd8152be029ba1U, 0x3e1c84ad3e1af106U,
  0x3dbbcf62be06ca11U, 0x3e0f1f2cbe40f1b1U, 0x3d19c6583e344d01U, 0x3e39479a3dcf0398U,
  0x3e1e2ecb3e693cdbU, 0xbe04e54a3e1c1ac2U, 0x3dae04c0bd05b269U, 0xbd870987bbcccf83U,
  0x3b02cd503db9d68aU, 0x3cb272a8be833b7cU, 0x3e167c043e3470f4U, 0x3d900e1ebe20208cU,
  0xbd20f485be1ce031U, 0x3e8fc39ebd85a894U, 0x3d5a2b00bc145c73U, 0x3d5755ec3e0f997dU,
  0x3cf151123db19228U, 0xbdf5ccad3e01b206U, 0x3dfb2a10bdfe3e3fU, 0x3dcea644be2e3560U,
  0x3e4504813f0f762dU, 0xbe326c233e0e1dafU, 0xbdc2448fbe0c3feeU, 0xbd637e17be652a8cU,
  0x3e9a3dabbe1379caU, 0x3e05c242bdfd7b1cU, 0xbdbb7a0bbe1000daU, 0x3d94873e3e498a97U,
  0x3e4064c13e296556U, 0x3e76f0a1be313885U, 0xbdce3ba5beacc09aU, 0x3c9cb4d43d18b6ccU,
  0xbdbbaf4cbf04906fU, 0xbe1f0e0cbe10ad39U, 0xbe82eb253e19d854U, 0xbd8637f43ec93a88U,
  0x3e92ffd13e2d470dU, 0xbe4cc2953f0cf2d4U, 0xbe9fda6abe705f27U, 0xbda257473df2b600U,
  0xbe112f86be167b05U, 0x3da8d0103e284625U, 0x3dfd503ebe421aceU, 0xbe0df9e03d977e0cU,
  0xbd1284683e3dc486U, 0x3d92025ebeba41d9U, 0x3cceb690bd0276a1U, 0xbe30d37d3e5500d7U,
  0xbda7df4c3e9a4120U, 0x3dcb8151bcb42dadU, 0x3d87c5073d9e58c8U, 0xbe4ed5ec3e93cf95U,
  0x3ce8f5453da366b8U, 0xbe348546be222a53U, 0x3dd3eb88bc997f31U, 0x3d0d8d6c3d474e8eU,
  0x3d589d6a3d982619U, 0xbd9fc5383d749592U, 0x3e3cd7e8bc4a46b5U, 0x3e9540633e11b0daU,
  0x3cb1f23abdcd47c0U, 0xbe3205513da4dbeeU, 0xbda8cb6e3ea1fecaU, 0xbe8e91ba3ca8cec7U,
  0x3d89ea0d3d55c762U, 0xbd41b949be229b35U, 0x3db2825a3e2918beU, 0x3de48838bd9de27aU,
  0xbc938b70be122574U, 0x3d9587bdbd98e13eU, 0x3e93729b3eb07dd5U, 0xbdd0874c3eb1b68aU,
  0xbe46882c3e390752U, 0xbca83b1f3ed185a9U, 0x3c4b0d063de4f881U, 0xbdc0d099be8b03dcU,
  0x3d90b4683e3deeb1U, 0x3e00c52e3cf9e682U, 0x3e5fde74bdc09c4cU, 0xbf13b5f13e527156U,
  0x3dd6c9ffbe333c53U, 0x3a753397be1f991dU, 0x3b8c1d25be9ff36fU, 0xbe2580843e082e70U,
  0x3e17802d3df9eca5U, 0x3e1e41113e508ac3U, 0x3dae91643dfb646eU, 0x3dc4e80b3eecc76aU,
  0xbea967513dd8c402U, 0xbed394483eacd52cU, 0xbe2fed003e84c68eU, 0xbd6af1653ddc8462U,
  0xbd94f584399ab164U, 0x3c49ea25beab72c2U, 0xbd5c0f61bde644d3U, 0x3b4c73173eaac487U,
  0x3e1b3029be4a5af9U, 0xbe30a493bd3f0e7aU, 0xbdcd42863e834f01U, 0xbf22c12abded2157U,
  0x3f23a7b6bd7cd394U, 0x3df3dc4cbd97b005U, 0x3aef8b4c3e8ae571U, 0xbe07f495bd284002U,
  0xbdca43ff3dbe91f3U, 0x3e06f3b43dd9f503U, 0x3e701c8f3d436270U, 0xbd351ec83cb18a8eU,
  0x3d8562a1bc888980U, 0xbe94e9babe7c44d6U, 0xbe0b315e3e4785d8U, 0xbb0170c8bd9a61c7U,
  0xbda538583e47ae1bU, 0x3f0ac3aa3cb9c1faU, 0xbb33e4db3e84f8c3U, 0xbe4738f83da93f8fU,
  0xbda72618bdaf44e4U, 0x3e84b0d9beb4d1daU, 0x3d1dba84bc3b0240U, 0x3da22981be3f675eU,
  0x3e8a93133dcd1a35U, 0x3f0bcf4fbe744dc5U, 0xbea018bfbd3533f5U, 0x3ba2a594be884d12U,
  0xbd11e5c9be7e9babU, 0xbd37ccafbeb2962fU, 0x3e1e81c03dd5e3c2U, 0x3dcb3574bdf4258fU,
  0xbdb3bf693d811459U, 0x3c851bffbda43251U, 0x3ddd0b66bcda496aU, 0xbdeae472be9571a2U,
  0x3e06ab043f14e9d8U, 0x3de3d430be692994U, 0xbd99c9c73d2fb783U, 0xbd778a77bdd0d421U,
  0x3e99d86ebe3ed79aU, 0xbd1091723deb834cU, 0xbe22977fbe3a6356U, 0x3e73bba23e356e91U,
  0x3e36d2a2bddefac3U, 0x3e07c3f53d1d42faU, 0xbe47731f3e8412b2U, 0x3e5aa71bbf29c1fdU,
  0x3e31ef4e3d2d0df5U, 0x3dc9c1c53ed729c2U, 0x3e6ee931be8162beU, 0x3e573923bd88b404U,
  0x3e2b861dbe43cdf6U, 0xbebdbdad3e356f73U, 0x3e997c943ddc9ed0U, 0x3ce83901bd7b8b0fU,
  0xbde7bb38bd1a8241U, 0x3de573493da8c9a8U, 0xbd48c1d33e290b54U, 0x3d2a31c03ec8901bU,
  0x3bb7bdcf3db8b2dfU, 0xbeace13e3eb95dd2U, 0xbdf75a8fbe2a6f62U, 0x3f238dd9be97ef53U,
  0xbdaad02d3e7bbfb1U, 0x3ca67b453de8c575U, 0x3e06db2bbbaf0b12U, 0x3e4694a23cd26e99U,
  0xbdbb275d3eaee681U, 0x3e5f2deebe5aa732U, 0xbe1a42c23d4e9864U, 0xbeb23f1ebe933b80U,
  0x3dd97210be2d5f82U, 0xbdbccd163db121aeU, 0x3da31c04bd118ee4U, 0x3db6377c3ceb9fd7U,
  0x3e8a6997bd0740b4U, 0xbe4930833e308102U, 0xbc0415803cf8107bU, 0xbcef16b7be81796aU,
  0x3d71499cbce2424eU, 0x3da65320bd08aa95U, 0xbea9c0083e0741ebU, 0x3d9bd2e83dec5a6cU,
  0xbd1c6ffebcb93d81U, 0xbdcae53fbe826709U, 0x3ea5dd1a3e41a993U, 0xbd01fa4cbe3eadb4U,
  0xbdaa2d4e3df09e1dU, 0xbdab926e3d0d0111U, 0x3d22ec9dbba0fb30U, 0xbead13b03d7f61cfU,
  0x3dc7cddb3e982d46U, 0x3eed1781be97c3f8U, 0x3e827ecfbe6044d4U, 0x3de37742bcea904aU,
  0x3e1d611fbe6eb1d3U, 0xbdf408c83eaf011fU, 0x3da436bcbd4422a6U, 0x3e0cb5c23efed37eU,
  0xbe0f02b53dc1f944U, 0x3dc0c54a3d95f135U, 0x3e1e71303d49886dU, 0x3e3c137dbe23efdeU,
  0x3e33ca293d10a6d0U, 0x3e01954c3c2d3c00U, 0xbd9005353e0ab955U, 0xbe52dcdb3ed00643U,
  0x3c2ea4f4be906885U, 0x3dd4677b3e4d749bU, 0x3e59cd463e402267U, 0xbe30a994bdb2f6beU,
  0x3d250af0be2c4ac9U, 0x3e3194da3e8c3c9dU, 0x3d24a470bdc8b935U, 0xbe9e9d86be12acf6U,
  0xbe5b046dbe4e32d4U, 0x3e3b06e53dcf9bfeU, 0x3e2d01a83eb1c1f9U, 0x3d80c29c3e38a78fU,
  0xbe3cf3ae3d852135U, 0xbe2c66873ceaabb9U, 0xbd0d8d883e0b7986U, 0xbd23e38a3d970416U,
  0x3c78fb88bc905eaaU, 0xbf04e314bd584001U, 0x3e953d61bd99a1bfU, 0x3e52c8afbd91a9d8U,
  0xbe8dd9693d09c5a6U, 0x3d30ba943e3c8a17U, 0x3e09b4b6bed159d8U, 0xbca56a3fbdfc8a93U,
  0xbe9220fa3de73ed6U, 0x3e0c0f763e4e073bU, 0xbc9315bb3d010c33U, 0x3de107d13e46050dU,
  0xbd5055f43cac1739U, 0xbd9515063e1c6fd0U, 0x3e4cf5e03c8d6116U, 0xbda30b0cbef0416fU,
  0xbc32947f3e426a62U, 0xbd9e6a9cbe1be9f3U, 0xbe0ee2c43e36cdc0U, 0x3ef15e77bcd87887U,
  0x3e154e223cea55afU, 0xbd87e0cdbc100fe8U, 0x3d8d40333ca9b52fU, 0xbb839a3f3df25042U,
  0x3dd8973c3cde5357U, 0xbe00c74a3ea8d3dbU, 0xbe1bde393e8913c1U, 0xbdc8f2a33d684e22U,
  0x3e4c2d24bcb77c24U, 0xbbda8b1f3e9872a8U, 0xbe2d8d2cbd890cdbU, 0xbde7afabbdd76c75U,
  0xbd7211913de712faU, 0x3dd0fa08bdafe070U, 0x3e3c30fdbd00db44U, 0x3d84e9173e082895U,
  0x3e9b0ef23d7ffe8dU, 0x3edb3cc2be30dba1U, 0x3e7141b23e549c80U, 0xbe3212dcbe92c428U,
  0xbabd001fbd83f34dU, 0x3e04460fbc42be44U, 0x3e25462ebe650664U, 0xbf02e1323e86f96bU,
  0x3d47103dbe878602U, 0xbe232961be4437f9U, 0xbdc4a617bdcda3f1U, 0xbcca552e3eb5938bU,
  0x3e08f61a3e310da0U, 0x3e5a2ba6be155851U, 0xbd5c21a63d907514U, 0xbd7f0f48bdbbef1cU,
  0x395129f0bea3e717U, 0x3ca3491ebeeacdc3U, 0xbe83d5a63dbb05bcU, 0xbe1a9aaf3eadf253U,
  0x3d604e283d339a22U, 0xbe182b7c3da4d67cU, 0xbd3ee514be2680caU, 0x3e6c6acabdfde061U,
  0x3dbd5c99be1243caU, 0x3d1c2533be3282a6U, 0x3d60a4bcbd943d5eU, 0x3e0e572e3d82f016U,
  0x3cec7e4b3bb0427aU, 0xbe74e23ebe10d2d7U, 0x3df5ef8dbd6b726dU, 0xbef270b93e2fde6eU,
  0x3c3d26bd3ef0be47U, 0x3c5845af3d72d189U, 0xbecfdff13e8e70eaU, 0xbd5991e0be29cfd8U,
  0xbe335aa23e314461U, 0xbdb7cc083d9d0af1U, 0xbe03aa09be99dbadU, 0xbe1c18b03d974464U,
  0x3e9db82c3f220ef1U, 0x3d109605bd9d1b8bU, 0xbdc90f37bd912280U, 0x3e33d1fdbddaa816U,
  0x3d0dc1b6bb7f1680U, 0xbd8968a93de8b913U, 0x3d945581be145f71U, 0x3cdf0b433d0fcc89U,
  0x3e30f20dbb1dbbcbU, 0xbd9ca92a3eb91b39U, 0x3e0fc0073d97bc9dU, 0xbcef505cbe8938e9U,
  0xbeb86f01bc21ab83U, 0xbdcdb537bdf6f21bU, 0x3dbc5ae3be9ad2dcU, 0xbd441947bdcada44U,
  0x3d651708beaa3ed0U, 0x3ea4971a3e4f03f6U, 0xbe0554ab3eb33f5cU, 0xbe1c14003dc3d122U,
  0xbe8cb6223e8a54b0U, 0xbeb01cd43e07e297U, 0xbd8e500b3da57a38U, 0xbc9052a83e3be1d1U,
  0x3ca219ad3d9eaffeU, 0xbe8cb96cbd8781fcU, 0x3ccbfedd3e1d5a6dU, 0x3c0455483cccf0eaU,
  0x3e40fab23c7ff6c9U, 0x3e2bdf51bbd368d7U, 0x3d3e504cbe5bcda0U, 0x3e36e4dabe42903cU,
  0x3def4876be1c32dfU, 0xbe860755bc13458aU, 0xbd9ea126beb5eac9U, 0x3d766f733e9b712dU,
  0xbe8e93ec3b813bb3U, 0xbded94ba3e864e4aU, 0x3de35e0a3d417ffeU, 0x3d31f5d63dbdfe77U,
  0x3e231f10bd362d0dU, 0xbd2d78e4bdd08d43U, 0xbe1924f0be7765d9U, 0x3eb00a76be192e7bU,
  0xbde553cebe18420dU, 0xbd146e0a3e0a9b6aU, 0xbc8ea5023b45fffeU, 0x3e54d91e3eda8504U,
  0xbe3f66d83d9530eeU, 0x3d35d57a3eda8cc5U, 0x3c16ee803e4edc0cU, 0xbda2e8f73e068b97U,
  0xbdf85e323ef728c8U, 0xbbd790edbd8ed3ffU, 0xbee0b2dc3e10a032U, 0x3ccd5abcbe60c984U,
  0xbd9fee3a3edfa5c5U, 0xbe437218bd38ea23U, 0xba398ae73e64fbf5U, 0x3e4ac49e3e54162aU,
  0x3e3992d33d47639aU, 0x3e9c99823dfd6d32U, 0xbd10b5ab3dc86e73U, 0xbe3db6b7be83f622U,
  0x3e4289f33cefbc84U, 0x3ccae6ee3da3fb03U, 0x3e458982bdabaf1eU, 0x3d57e8abbd8868b2U,
  0x3df3e7b2be7a46c2U, 0xbd5e664d3de0d983U, 0x3eb432cc3d9b3c4aU, 0x3ebedcf9bed91b35U,
  0xbda7d061bdaed74aU, 0xbdb0b549be67467dU, 0xbe3f8a043d3725faU, 0x3d572d73bd2628cbU,
  0xbde8045fbde6e91fU, 0xbe0e5d7e3ea74da2U, 0x3e531979bd8b0214U, 0xbd90a5743d039157U,
  0xbe123a483de2cea6U, 0xbdda12493eceec43U, 0x3e643a26bd22fc63U, 0x3de3d76dbd03030aU,
  0xbe3722ae3f030587U, 0xbc85a0d5bb9ff55eU, 0x3ddf745bbe432ec4U, 0xbe2ec447be79f358U,
  0x3b4e6a0c3e184549U, 0x3e1e0da93dd72a42U, 0xbc846a3dbdfef0c3U, 0x3d37a1ea3e2af006U,
  0x3e8ac3433e966dd1U, 0xbe0f0bde3da8eb79U, 0x3dd47c72bba370f8U, 0xbdaf9e983e151af1U,
  0x3de8decc3e01f3b1U, 0xbd2f0a48bed21648U, 0x3dccc1e33de875e9U, 0x3b100eb0bf176402U,
  0x3dfc31313e25a1d6U, 0x3da9f113be24d0e0U, 0x3e22c075be993c4aU, 0xbc196784382668d3U,
  0x3e9efddbbd1af1c8U, 0xbe0318b03dad6dfeU, 0xbd5fee463e301485U, 0x3d7df62f3d9a2486U,
  0x3d69292e3b4f33f5U, 0x3e227dd3bd918a0dU, 0x3d956223be143497U, 0xbe78d353bdf9ecebU,
  0xbd42b719bdad042dU, 0x3e438c413ea081b4U, 0xbc9d669cbe013388U, 0xbe41f50e3e28c4d8U,
  0xbdd4dc683e2ea0aeU, 0xbe5d2051be66b036U, 0xbc7a20db3e43d0d5U, 0x3ed7ec4b3d1511f4U,
  0xbcf177be3c17d2bbU, 0xbe1cad603db12a83U, 0x3d2cdb40be0f8860U, 0x3caa408b3cae317aU,
