/**
  ******************************************************************************
  * @file    network_data.c
  * @author  AST Embedded Analytics Research Platform
  * @date    2026-01-02T03:38:13+0000
  * @brief   AI Tool Automatic Code Generator for Embedded NN computing
  ******************************************************************************
  * Copyright (c) 2026 STMicroelectronics.
  * All rights reserved.
  *
  * This software is licensed under terms that can be found in the LICENSE file
  * in the root directory of this software component.
  * If no LICENSE file comes with this software, it is provided AS-IS.
  ******************************************************************************
  */

#include "network_data.h"
STAI_ALIGNED(8)
const uint64_t g_network_dense_dense_weights_array[350] = {
  0x3e246152be33ae43U, 0x3dcd30783e3095a4U, 0xbe083ef43e58c7d2U, 0xbe41b037bc0c0420U,
  0x3da92138be298731U, 0x3ddaec58be3633a6U, 0x3cc106803e6c5084U, 0xbefc17713ecedb5bU,
  0x40233b00bf9a733cU, 0xc172add8c0475e8cU, 0x3dce7490c15724c4U, 0xbff3fc42beb011faU,
  0x40ec7999c102f774U, 0x41ea7344419c6d76U, 0x3e874cf83dc31860U, 0x413218973fa8a100U,
  0xc102ba72c0357028U, 0x3ed3b8fac1243907U, 0x3fa349e5bef95c34U, 0xbfe09a334079094bU,
  0xc08210b9c1094eefU, 0xbd23d220be5b0ce3U, 0xbe28336a3e4b8e3cU, 0x3e2165323dd6a3c8U,
  0xbe1403ce3d7b2a00U, 0x3e69d1acbdb66be8U, 0x3e69abb83e1639e4U, 0x3e42d9cc3cb67850U,
  0xbe7c1f73bd3769e5U, 0xc0a23fc6bfbbf077U, 0x41a2fab1409ae5e1U, 0x3eeaf70341aa6618U,
  0x3ff29fb3bf63dc61U, 0xbf11a028c05913c1U, 0x4104208440bc043aU, 0xbe27ad713afec300U,
  0xbe38847abdd158ebU, 0xbd3e879b3e6b1d87U, 0xbe03feedbe6be250U, 0x3d93cfd63ec155dfU,
  0x3e6fa39ec18c9fe5U, 0x41f77892407f4864U, 0xbeef5936bd181824U, 0x40439705c01db52dU,
  0x40bdd8b43ffff62aU, 0x3e3008784066a59cU, 0xc006d06cbd161f31U, 0xc091d96fc10cf949U,
  0x41b7316dc1217674U, 0xbf1a06953d01e8f7U, 0xc17d6c71c021d175U, 0x416cbc3c3feb4015U,
  0x3e92530e42309b1bU, 0xc084c82dbf5e14f8U, 0xbf52ccd740131e3aU, 0xc166352cc1a2ed30U,
  0xbe1d7a5abe1cb0a1U, 0x3c26c9a03e0ae572U, 0x3d44d490bdf2863cU, 0xbe139c2dbe40afa4U,
  0xc06dfbf73eb9c1baU, 0xc01f5acc40656a47U, 0xc209af2bc1a30bbeU, 0xbd68ced23e51a6c7U,
  0xc111b778c0222a21U, 0xc007bb474121847cU, 0x3e7f1dd5423953fdU, 0x3ffea75d3da74cf1U,
  0xbfbec0b8c0dc3690U, 0x401dddd1401f539eU, 0x3e411a27bd4ebe4eU, 0x40f304874025df9eU,
  0x3e391812c129aba4U, 0x3dc74df9c1a4007aU, 0x3fccf4543deea881U, 0xc09945744029862bU,
  0x3f94aead41405a30U, 0x3d817868be35f3efU, 0xbdc7be463d015118U, 0x3cbee9e03e2ab07eU,
  0x3e8bb8a83e3d2d74U, 0x4030f84fbf596990U, 0xbf971a91bf8716d5U, 0x4100f84e411484f0U,
  0x3da68458be244fd8U, 0x3e42633cbca8eea0U, 0x3de2f6a4bdd55ef2U, 0xbe314604bdab3e2aU,
  0xbd56fc8cbd08ca70U, 0xbe6c8d36bdd42d44U, 0xbe399be43d568808U, 0xbefc996e3ea9c10eU,
  0x3f2134cdc09b88f1U, 0xc12cecf540a48051U, 0xbe36af20411b028bU, 0xbe060cb73ca81610U,
  0x3df47f18bc8cdbf8U, 0xbe15867c3c4cc930U, 0x3e9d06293e7d99d3U, 0x409c039ec06e13eeU,
  0xc13b96df40397979U, 0x3e98bcebc03cdb71U, 0x4011ceaabdaf92cdU, 0xc03dbb65bf231b48U,
  0x409cd7b8413bdf8fU, 0x3eb9ec3c3eddeacdU, 0xc08428b7be3c2c40U, 0xc0b025fbbfa7daccU,
  0x3eb3af6dc01643f7U, 0xbf03eb28beb6ef5cU, 0x40a67eacc0e6f82fU, 0x41ca2bb9c1261b48U,
  0xbd7c25dcbe26d48cU, 0xbd8f676cbd53b7a0U, 0x3df221fc3c6b17c0U, 0x3e85fb40bd8a204cU,
  0x40474588be910597U, 0x3ec1e38ebc35ec82U, 0x413af65e40e6777eU, 0xbfb707d43d4b13f6U,
  0x4065d06bc04060f6U, 0x412d44c1bef41a30U, 0xbd34778cc02f9dc0U, 0x3da88e783c141910U,
  0xbdfb51f23c878320U, 0x3e6f1da23e176ce8U, 0x3f038d7c3dff2138U, 0xc0eeb6b2c015ca21U,
  0xc0aeefe73fcc8a06U, 0x3ebcbe2d41e0e221U, 0x40226f5ebf30f3a0U, 0xc0248c6fbc06f0fdU,
  0x40def72040dbfa8bU, 0x3e0a7e56be67a7a1U, 0x3b851e00be5d805aU, 0x3d2d9d40bc3ae400U,
  0x3e446d9a3e64f2f8U, 0x3ebe4eed3ecebb7dU, 0xc0014bbf4113e599U, 0xc1341156c14599f8U,
  0x3d1f44353ee9c590U, 0x3f72e7003f8c83b0U, 0xc12b2df7c0acec3fU, 0xbded83b0c16bf9e3U,
  0xbd9045d0bd0c81dcU, 0xbe11e4863e067b08U, 0x3cb45240bd321bd0U, 0x3d62b358be644826U,
  0x3e2621d6bdcffa3eU, 0xbe1d24783e07f0e6U, 0xbd8d43163d39a8b8U, 0xbd816c543bf8c6c0U,
  0xbdd31724bd3ea46cU, 0x3db46464be3a5f94U, 0x3e4901f8be24453cU, 0xbe1c6ab5be683f07U,
  0xbdab3dc33e5a957eU, 0x3f463b5dbe724009U, 0x3f6996d6bf07e795U, 0x3e51923ebf10d702U,
  0x40a0f48fc008d3c6U, 0xbf14f3ddbd0b2379U, 0xbf9cad90bffdc567U, 0xc1d87b05c0dd74fbU,
  0xbe042c51c1d9a2dcU, 0x3d1a8e4e3e1f8d85U, 0x3daf0e34bd8cd470U, 0x3e158a983df12bd9U,
  0xbf243df23ed94abaU, 0x400b031340023686U, 0x4010850a3f86a92cU, 0xbdf0f35141621dcfU,
  0xbe4b7185bd730ddcU, 0x3e436422be333821U, 0x3e1365363e09779cU, 0xbc1aee80bdecd13bU,
  0xbde6805abe389260U, 0xbe3831e9be2a2736U, 0x3ed1a1e4bdc1f2d4U, 0xbffe409f3d60c5b1U,
  0xc016d4ba40e2ebb5U, 0xc140a093c074d0bdU, 0xbe03f17dbe62c282U, 0xbe5ea607bd324158U,
  0x3e4f9afebdd24694U, 0x3eefcc983de46a84U, 0x3fc908063f133b37U, 0x4018b36dc02edbcaU,
  0x41aa27f940ad052aU, 0x3d3ad330be53cd1bU, 0x3d22eb50bc6bde20U, 0x3e1f4cb03e5197beU,
  0x3bf39899bde1a78cU, 0xbf7117c4befd2922U, 0x3f89b365c1a39e58U, 0x4245400141bac499U,
  0xbe50bc83bdb54ed4U, 0x3d3248683dc0c618U, 0x3db47fec3e1760c2U, 0xbe3ad4de3e536846U,
  0xbdabce0cbd9df3b0U, 0x3e06e6dabcb88260U, 0x3c5751a03d6cfef0U, 0x3ddaf018be519143U,
  0xbe40c6b33e638486U, 0x3d0b2568be40b771U, 0x3ef75f843dd54fbcU, 0xbe87f3a5be76e8caU,
  0xbfe15f16c05fc613U, 0xc003bb09c103045aU, 0xbf207c08bd454f54U, 0xc00098b53e2d09f2U,
  0x4172ec9dbfc47f41U, 0x3f2c977c4097362cU, 0x3f81b5263f803ef2U, 0x3f8c29464022b811U,
  0x4124d735bf125939U, 0x3dcbcf14be2d14a0U, 0xbe219f1e3c45f370U, 0xbda6c5f03e575356U,
  0xbe40ee923e6cea2eU, 0x3e60e3aa3df42d6cU, 0x3bbc78403e40e68cU, 0x3e2dbd823e0c762cU,
  0x3ef024063de2f18eU, 0x402f1095c004d289U, 0xc15b6a4a405fbe4bU, 0xbdd3305cc0ed6245U,
  0x403c69223f3b2027U, 0x3d7e931640203338U, 0xc120da7ac10d90a6U, 0x3f4c07c3be381e9fU,
  0xbd78d9c3402cb2abU, 0xbfebd159c03e7bb6U, 0xbd94afa6c12d8594U, 0x3b8f7d20bdec74d2U,
  0xbd3d2380bc041640U, 0x3e46bab63e35246cU, 0xbf2dbb953e8e369bU, 0xc148de1cc01877eeU,
  0x40e696014040adbfU, 0x3e26204a4239e866U, 0x3f54156ebddb5b07U, 0xc045eaf3402b78b6U,
  0x409a55c3414d61b5U, 0x3f105bb33e1ec359U, 0xc109e8c53f41aa1cU, 0x4063ba2cc0555de2U,
  0xbda4222a4111427dU, 0x401e599d3f4aed8aU, 0xc0f0d42b40a796bfU, 0xc1a7c74cbe90fd12U,
  0x3f682c403e6e9c50U, 0xc0684c8b4018c7f1U, 0x405b44a33fcb9a7cU, 0xbaba4654415a72dbU,
  0x3fb8787d3f1754f6U, 0xc047b55bc10c7532U, 0x40ea72b34060de50U, 0xbf4c49803d9666e2U,
  0x411f491b3f8fdadfU, 0xc1180ab2c0f5b7faU, 0xbd020458c18a0fb2U, 0xbcdb85a8bd89aafeU,
  0x3e58e79abe0326d5U, 0x3c36b3c03e14c356U, 0x3c5f72a0be551903U, 0x3e5a92ac3bea0200U,
  0x3e366eecbd994cd8U, 0xbe6cbdc13e675202U, 0xbd8d29083d679d00U, 0x3e4670403dc0eb18U,
  0xbe559babbe5e3d28U, 0xbf022aca3e8945b1U, 0x40fb0bf8bf91bff9U, 0xc15373b1c08280bdU,
  0xbdee3e8ec152473cU, 0x3d834fe83a05a500U, 0x3db3ef90bd8dfa7cU, 0x3d3bbce83e23c216U,
  0x3f3cef3e3e152498U, 0xc0efdfaabfafbb60U, 0x3eea7c46409abeddU, 0xbd33e9d0420193fbU,
  0x3f80433d3f7ce28cU, 0xbf99668d40d9e5eeU, 0xc14f9ad7c106ef60U, 0xbb478bc0bdb81d9aU,
  0x3dd7936cbdbbb7b6U, 0xbe2c7bfabd8619aeU, 0x3f3996b93dc83348U, 0xbfa632e1bfad04c1U,
  0xbfd010383e92089eU, 0xc11d4e80c12e2c5dU, 0x3f16c8c7bd8a168fU, 0x407acc45c05027a1U,
  0xc16b51433efa4674U, 0x3e547e8ec19ddd0bU, 0xc05ee32ebf8606c0U, 0xbe99761a40a57334U,
  0x41561e5b411c4e1bU, 0xbe14b548bcd0dd94U, 0xc1749bbebf0f5840U, 0xc1aba81dc1606184U,
  0xbdc897bbbf410769U, 0x3fc4d4efc0633504U, 0xc03979c1c0fdd02bU, 0xbfd566b64112a8e6U,
  0x3f41f46cbd80e2feU, 0x40aab5553fd1fde2U, 0xc1487ab4c08d7a5eU, 0x3e29d833c1a1f1ecU,
  0x3fb7e3683ee7c6fcU, 0xbfd97e3e40fb88dfU, 0xc1349b68c174b89aU, 0xbab9587e3df9333bU,
  0xc132248cbf73cb69U, 0xc1087df8c102f495U, 0x3f4558a7c1d86478U, 0xc00c3636bf33f131U,
  0xc02d0449407b8de7U, 0xc1467df7c09551b5U, 0xbe3229d2be1cc224U, 0xbe47a727be3604a1U,
  0x3d0208403bce8060U, 0x3eef62ebbd96e22cU, 0x3fecd27a3ebb6d72U, 0xbfe653f1c09a7471U,
  0x3fe8be614084de68U, 0x3e94aad5bd7bb5bcU, 0xc154c58abf2dd37bU, 0xc0825cbebf9e5ee9U,
  0xbe63dd2841d17b36U, 0x3d23b430bde647c9U, 0xbd8cd89c3df1a8bcU, 0x3e325b323e1ec386U,
  0xbd5a2528bd5f0decU, 0xbdcd82d0be65cc22U, 0xbd1313f8bd2928b4U, 0xbe11f8f03e385710U,
  0x3f8eb92ebdfe8307U, 0x3f28f4df40a1c403U, 0xc10d1bd6c056fbabU, 0xbddd7ef2bdf9f279U,
  0x3e495918bce1d318U, 0x3da1e158bd3359d8U, 0xbdd04b873d3ddd08U, 0x402585203f2181f8U,
  0xc05f15ad408f7f93U, 0xc1a02bfbc1321f67U,
};

STAI_ALIGNED(8)
const uint64_t g_network_dense_dense_bias_array[50] = {
  0x0U, 0x3dbbcc2cbd9b1224U, 0xbd8ca6fdbc79b2f6U, 0x0U,
  0xbd8a4ca43d6c41b8U, 0x3d55fe5fbabf509bU, 0xbcbfd6363e108740U, 0x3c28e3503d649b35U,
  0x3d8ae68b00000000U, 0xbca4d6013d2ea572U, 0x3e0623fe3d42048dU, 0xbce47de400000000U,
  0x0U, 0x3d2ae132U, 0x3d4b6759bd07c756U, 0xbd813598bda551e8U,
  0xbd348aad00000000U, 0x3d988914U, 0xbd792537bb61a9a7U, 0xbce1e32f00000000U,
  0xbdfebca5U, 0x0U, 0xbe39af0f3a9ec6e7U, 0xbb03f2b63dc5761fU,
  0xbd9248baU, 0x3e22bae300000000U, 0xbdb1173600000000U, 0x3ca90c2c00000000U,
  0x0U, 0xbdd82c0300000000U, 0xbe7faeb43e0eac7fU, 0x0U,
  0x3d6226a13c20e20aU, 0x3deb7e2cU, 0x3dc5e660bb63179bU, 0x3e05e6a4bce933b5U,
  0xbac5783cbd282e31U, 0x3d26befcU, 0x0U, 0xbd444cccU,
  0x3d681179bb369a72U, 0xbde07ed800000000U, 0x3c73afc43d17a8fdU, 0x3d72f4f13d4a3c03U,
  0xbcdee4923d6e38cfU, 0x3cf21b363dee40f2U, 0xbdc9468c00000000U, 0x3d891f62U,
  0x3dd6e45000000000U, 0x3d7bd85800000000U,
};

STAI_ALIGNED(8)
const uint64_t g_network_dense_1_dense_weights_array[5000] = {
  0xbe13f13a3e297c30U, 0xbd0596fbbee6e34bU, 0xbd80373c3e2ca021U, 0xbd23b5c8bd56951eU,
  0xbd890a993e448ebeU, 0xbf0824283e217ff0U, 0xbfada554bde7641bU, 0xbf10efbfbdcd2cfbU,
  0xbe9c2975be22e945U, 0x3e0fc89dbe766feaU, 0x3e88ace73fb1cdebU, 0x3f0b90033dfdfb80U,
  0x3cd76dc8bde1c887U, 0xbd277b88bee8917aU, 0x3e2deb79bfe36c7cU, 0xbfcfdeabbf925ecdU,
  0x3e95693ebe10a63dU, 0x3d978c8e3e9ea521U, 0x3e6a2b62bf4d4986U, 0xbe1bade53e072404U,
  0x3c7c7af0ba8a400fU, 0x3e2a65f63d8d50f4U, 0xbf8143ccbc2c0ebbU, 0x3c97672abe8bb006U,
  0xbd3bb140bdb27776U, 0xbe297caa3d707168U, 0xbfa3589fbe0b280aU, 0xbede5240be065995U,
  0xbe2848fcbe1dd7ecU, 0xbf7b1e34bdecdae0U, 0xbfbb7d6a3ea03a1aU, 0x398782003ddcdcacU,
  0x3f7688b1bf6703f8U, 0x3dc63db83f604f4eU, 0x3c1b5629bec908b4U, 0x3f3a019bbdb00a1eU,
  0x3f48c4e0be0be1f8U, 0xbd3891003f6f7ce9U, 0xbdcad04d3dc04adcU, 0xbd8eb88dbec8f933U,
  0x3f07f0ccbf857eb5U, 0xbf9f6d70bdeb9890U, 0xbe7c2e26bf57dd29U, 0x3f6e6db5bf33fe48U,
  0x3e22b8e93f427edcU, 0xbeb1d783bd60b62aU, 0xbf13788dbe28c95aU, 0xbdfc0988bef54590U,
  0x3efd5beb3df1f018U, 0x3f8ceab2bdb3d636U, 0xbdae29c8be2bc624U, 0x3e3bd0373d116044U,
  0xbf09100bc003a2eaU, 0x3d8ec7b43de6752cU, 0xbd2ffe6c3e13c233U, 0x400b840bbd42a648U,
  0x3fe9d788bdd74d5fU, 0x3f47b9c83fad09b5U, 0x3f11fe1e3d0b524cU, 0x3e029fee3ee379ddU,
  0xbee7c514c016f818U, 0xbee2b9e2bc8c8750U, 0x3d322170bdb365efU, 0x3d61f0883f029435U,
  0xbe8dd8533ead96c3U, 0x3fa15e5e3ea56b5dU, 0xbf48ca8bbd17f8acU, 0x3de319703e8faa53U,
  0xbf53817a3fb9c13aU, 0xbf7034a63e2eb0c2U, 0x3df94e843e9f05e6U, 0xbd4d11fc3b420d40U,
  0x3e6b8bcd3df41daaU, 0xbe00792c3f597ab4U, 0xbcc5e518bf30d870U, 0xbe75cd1bbe1dee97U,
  0xbf621a573de24b14U, 0x3ff1821cbdf3f4baU, 0x3d81d0203de5a680U, 0x3f08e1c2bd9888acU,
  0xbfc8a31ebe898dc8U, 0xbd148508bdc6352fU, 0xbf35e5203e99f6ccU, 0xbd322754be6f7bcfU,
  0xbe53fc3a3f906543U, 0xbf30215c3f68627bU, 0x3f689190bed280beU, 0x3d46c920c02ae6adU,
  0xbdab4f2ebbf56620U, 0xbcf51a10bf4d23d8U, 0xbf70f3a53fa00825U, 0x3eb874f33e0cb2b4U,
  0x3c971f333f0dab77U, 0x3f2f315f3fed6a5dU, 0xbfd2d1a9bf3a534eU, 0x3c1e5ae63f04c3fbU,
  0x3e484cddbcd06c58U, 0xbd028dc83ff8986eU, 0xbf0eb8923cc61aa0U, 0xbf6d10bebde3dcc4U,
  0x3e2bdbb43d66896cU, 0x3d8db933beff82b9U, 0xbf07e970bf50a510U, 0x3e0298b83c5d15e0U,
  0xbe2382ba3e3f562eU, 0x401d0cf63df5003fU, 0x3f7fcda3be895f51U, 0xbee00b493bfc6178U,
  0xbecec94ebcc05330U, 0x3eddc29e3e6b8d13U, 0xbe75f172bf6118abU, 0xbf020b343d0ba820U,
  0x3dc13ae4bd0a082cU, 0x3e2a0f96bd960ed9U, 0xbdd64998beae4b86U, 0x3f1a720c3f154664U,
  0x3e07f142be2b7f3eU, 0x3d14e7a0bf47675eU, 0xbf17e2913f8b4918U, 0xbf00a1a6bd03a0d4U,
  0x3d674068bea9f07bU, 0x3e1a2e623de4ab50U, 0xbf747787bcd4f0bdU, 0xbd86848d3da4e661U,
  0x3e27c2f8be923695U, 0x3d6c6c1fbdb553d4U, 0x3efb37dc3e0d7ac8U, 0x3f443f0a3d7bfac4U,
  0x3d83ccb2bddcd70cU, 0x3d1816703d458e3cU, 0xbf0dd988beb6502fU, 0x3da9b3243e309abaU,
  0x3e442d253e92e32cU, 0x3e03b1403f329daeU, 0xbe808f783e873b31U, 0x3d1483fa3fca59bcU,
  0x3fdf6be13f3228cdU, 0xbe1f4a68c0262ddeU, 0xbdaf5d9cbde7a54eU, 0x3b71d500bfc0f1f9U,
  0x3e1eccd93fa5f3a2U, 0xbf35deefbdad59adU, 0xbf7a7c3dbe3c9344U, 0x3f0b59673fb3db70U,
  0xbee2a0c83d89ab00U, 0xbc9a12153ebdee2aU, 0x3f39327cbe1be458U, 0x3e1aa8a63ff37e8dU,
  0xbee613a4bc407fd0U, 0x3e6b92fdbe2ff68fU, 0x3a496800bd8e8475U, 0x3d87f5d5bf958f48U,
  0xbff5cd89beb6239bU, 0x3db08ea4bc135100U, 0xc0162eda3e02adeeU, 0x3fdeda013e0370b2U,
  0x3f0302db3d648ae9U, 0xbef5494bbc482a7eU, 0x3fabb9c03d88d584U, 0xbec78c0f3e4a98c1U,
  0xbd6d40d2bf6dd5d0U, 0xc02034a1bdf096a4U, 0x3e2d0faabd9de4e4U, 0x3d602e543e03b050U,
  0xbeaccd073d81a0aeU, 0xbf15df6ebece453cU, 0xbfce768b3dedf440U, 0xbe093c48be006bd5U,
  0xc0837ced3f9721c4U, 0xbe7dbc68bd22c918U, 0xbe07949cbf15affcU, 0x3e24101abaa19c80U,
  0xc08514e43e04595fU, 0xbdf831643f12bdedU, 0xbb3e4b00c02082baU, 0x3d093c3fbbb1e260U,
  0xbf83a97fbe19a79fU, 0x3eeddf193c8c9d50U, 0xbc4747503dbd5f4cU, 0xbf8e05f93e082816U,
  0xbf4a123fbdebb591U, 0x3cbbaaf0be06eb84U, 0x3f1f49c13f1bccc5U, 0x3e2538183f2fd68eU,
  0xbe94d693bf104562U, 0x3e12411d3e9e7a59U, 0x3eab95fbbc08b0ceU, 0xbdfa5fb6c04ad48eU,
  0x3c581e903dcb06ccU, 0x3dca6204c02092b5U, 0x3ef324c53f654812U, 0xc08c54d4bd62f91cU,
  0xbf11c0bc3f75f837U, 0xbe1e65e13fbdba59U, 0xbe295c203ec02208U, 0xbe25506b3e578e2dU,
  0xbee08b4b3de014d8U, 0xbc80bfb83fd657a8U, 0x3e5842193dee2444U, 0x3f1ab8c93d312000U,
  0xbdc840123aa82200U, 0xbf383e803f1e9fa4U, 0x3de1dbaa3efc983fU, 0x3e2be6d83db9e918U,
  0xbe9a5e87bf6e4badU, 0xbf36c471bd055338U, 0xbe1786cfbe906d89U, 0x3e8ff6c5bf4705e7U,
  0x3ec2bdcbbe09c192U, 0x3e4d202bbd622000U, 0x3cee46923f1f51f5U, 0xbe99cc0cbd150a24U,
  0x3e10f5e2bdbbb22aU, 0x3da88314bd1a80dfU, 0xbd6a7e153ee5d100U, 0x3e61ccf83ddf83e1U,
  0xbde055e6bdcd98d3U, 0xbe11761ebec7eee3U, 0xbea1f31cbee9fb69U, 0x3f2904733d1e4e18U,
  0x3d8226183eb01e36U, 0x3d819b9e3dbafbc0U, 0xbe406dcebd481173U, 0x3dae839a3f17843bU,
  0x3deaed443da2341eU, 0x3e839b803d66dc14U, 0xbf42dbb33e0b95e8U, 0xbfbe98c63d895848U,
  0xbda49a9c3d2a55c4U, 0x3c82d1463ddd6eecU, 0x3d7a5c75bec17171U, 0x3d3a53b0bde5fc53U,
  0x3f284be23ef684b1U, 0x3d0c8b983eb57ebfU, 0xbe8c4894bef03e1aU, 0x3e76cfc7bf006dbfU,
  0xbf0893e8be07605fU, 0xbddcddc83f91b725U, 0x3d75c9fcbccd3210U, 0xbd81863a3f5d1bb0U,
  0x3eecdb21beccb079U, 0x3e77c0de3e1558d0U, 0xbf3802dc3e71f113U, 0xbd07f5b23ea6bde2U,
  0x3f44e4193f58ba45U, 0x3d927b7f3d6407ffU, 0x3c850c793d2b21ecU, 0xbde5a7c2be9febc0U,
  0x3edab9a23e2d6b4eU, 0x3f5a4afdbe2e056eU, 0xbdd897ed3d965b3cU, 0x3d2205113f319cf7U,
  0x3dceb431befd927dU, 0xbc78e8703c98f540U, 0xbe03f061bebd555fU, 0x3eef48b63dea20ceU,
  0x3fd0d4c8be09babbU, 0x3f91e7653e8e3a5bU, 0x3fa0ce21be127e28U, 0xbcd829133f0a8fb6U,
  0xbe9ee034bfc637fcU, 0xbf1be7ef3de237ecU, 0x3d664368bd83c237U, 0xbe2d2c8e3ef71bfdU,
  0xbdfeffb43f648d5bU, 0x3f881ee53e958a4cU, 0xbf22b0aa3e0164f4U, 0xbd7d20003e8ae03eU,
  0xbef54c0c3f7f601aU, 0xbd810dd8bd87f922U, 0x3c9922083de93dd7U, 0xbd11d938b855f000U,
  0x3e9d02343e0e6572U, 0x3d9fb6b33f397ca7U, 0x3d3032a0bd3c4c42U, 0x3d9885f73e21a5a6U,
  0xbd8c193ebde48243U, 0xbe99b4663d216efcU, 0xbe047796bd8e783aU, 0x3f1d89a33e122aecU,
  0xbf6bd46ebeaa856fU, 0x3d4ae2a8bd010e58U, 0xbe99ed8e3f5042b9U, 0x3db6bf1cbe81f8ceU,
  0xbebbaeb33f33a8e9U, 0xbf130038be73a5a5U, 0xbf5eaf75be465c39U, 0xbe136ff1bf5a6384U,
  0xbd8716a03e094eb2U, 0x3d5725a83f67d850U, 0xbe17a9d03f39e22cU, 0x3f1baf84bd1b9968U,
  0x3e8a78543f75ef0cU, 0xc0016e1a3f6ace37U, 0xbdce0f9dbeac46dbU, 0x3e99f8613ec64c36U,
  0xbdb2e2ac3dfdd8f8U, 0x3d250e083f5ef26eU, 0xbf01740dbe2fddffU, 0xbedf34d93e2c1562U,
  0xbdbe83323d5a6ce0U, 0xbe209dcebe237415U, 0xbd538dd33b22ad1cU, 0xbd784ba0bde0d2dbU,
  0x3be34458be10a2efU, 0xbd3251c03cb68940U, 0xbe043735be14d723U, 0x3d9310973dab749fU,
  0x3e0be52bbda160e6U, 0x3d92598abdfd2d09U, 0x3d9366e3bd9d07daU, 0xbe1bf78fbe2f3e0eU,
  0xbdc3becebe0df720U, 0x3d209eccbdcb8f0aU, 0x3d44d2e43d71aa03U, 0x3d979c79be040c41U,
  0xbe0cab993db5ac38U, 0xbe0494033e141b04U, 0xbcf328d23b7696f0U, 0xb805bd3c3ccc88f0U,
  0x3e2a2be2be02c980U, 0x3da39b8c3e26296cU, 0x3da271e53db45f10U, 0xbd5c96663da4fce0U,
  0x3dcbda78bd8258ccU, 0x3d9a0d073d8521eeU, 0xbe0b757a3d22d5c8U, 0xbb626eb8bc680a40U,
  0x3dbbbb043c03f880U, 0xbd8948dfbe16954aU, 0x3e28dff33e0cef16U, 0xbe293c9c3df199bcU,
  0xbad6c4a33d0f7a4eU, 0x3c642fd03e1ce0efU, 0xbcb891de3c7245c2U, 0xbde7e0a53e218fffU,
  0xbd12084ebd82cd52U, 0x3c6c6ae0bc364b22U, 0xbdd89beebd50bceeU, 0x3da5bb103e03ee2dU,
  0xbe0163df3de4985fU, 0xbd9aa096be2f24abU, 0xbcbebe7bbb822449U, 0x3db9312c3c96112aU,
  0xbdc5980abdb2d7c0U, 0xbe0ca1473e27c9e6U, 0xbbcc136cbd980ffeU, 0xbd9c7e98bd31399bU,
  0xbc96f9983d4c44f4U, 0xbd1ef2a43c45b280U, 0xbd52b564bccad950U, 0x3e01db853d90d2eaU,
  0xbe01f50c3d97d7b9U, 0xbdae007e3d1ae43cU, 0xbe150a3e3db558c0U, 0x3d8c1123bcef2408U,
  0xbe2e90e53de04d13U, 0xbc1630a0be482324U, 0xbdc0cd21be03ed5eU, 0x39ad11963daa61d4U,
  0x3df61dfd3d5af0a4U, 0x3d773bd03e2aacd8U, 0x3e0110863dede25cU, 0x3cd026303dca47a4U,
  0xbd47e261be38bde1U, 0x3de58e7dbe26aed5U, 0xbe0616c83e181284U, 0xbc3c3cc03dfc18d6U,
  0x3dc3347dbde281e5U, 0x3dd043623d8845feU, 0x3d2bcfe0be278601U, 0xbd6e98b03e144fd2U,
  0x3da06ebebcf5f2d0U, 0xbdf652c63d0ae7bcU, 0x3e2ede1cbd39ca59U, 0xbdab02b93dd3170cU,
  0x3d4da415bd39d358U, 0x3da1491d3df3065cU, 0x3de533943e20b8d2U, 0xbda256cd3c6e6cf0U,
  0xbde7f1b73d9d2448U, 0xbe2ffda6be217ba3U, 0x3ce3b476be39a032U, 0x3b71e440bdee4493U,
  0xbd95fdd9be2609a3U, 0xbe2653183da1d061U, 0xbd6dd4b5bd4f2edaU, 0x3d9590bcbe19946fU,
  0x3e1219a63ce7f468U, 0x3c225940b8212968U, 0xbe3245423de5447aU, 0xbe1df352bc8befc0U,
  0x3dca9f32be21512dU, 0x3de67a6a3d1a51a6U, 0xbd429e76bd1fb39eU, 0xbe2120083cd0cc06U,
  0x3d98526aba9c7800U, 0x3ddd87d83cecd6f4U, 0x3d124e9cbdd44a1aU, 0xbdfbcf173e2df0a0U,
  0xbc918f70bd922dc2U, 0xbdfb2dd9bdb39c40U, 0x3dbfec2b3ddf25f2U, 0xbdc0be88be2392aaU,
  0xbe5cafd53df26a57U, 0x3f0044473dd6e168U, 0x3f2643fabe5d153eU, 0xbddce158bea46bd5U,
  0xbe8e5269bd0db070U, 0x3dd76bc93e4fec4eU, 0xbbbbf79b3f145f96U, 0xbdeaf3723e02a684U,
  0xbddc3578be1f634eU, 0xbe06cda13dcddd94U, 0x3cd5650d3e69b8f6U, 0x3ea4410b3d258746U,
  0x3e99e398bd127394U, 0x3d93ea24be9c172eU, 0x3c6a13033ee112b0U, 0x3dd828afbe2a7f79U,
  0xbdbf1ab5befab103U, 0x3d5d5a40be0808e0U, 0xbec29353bdce360aU, 0xbe0ae6b93e11fe46U,
  0xbd63fce0bd80c7c1U, 0xbd1bfdd3bd6cbe7eU, 0x3e5b2779be2632a0U, 0x3e2f73be3db06e74U,
  0x3db776dc3dab5020U, 0xbe880f5abde60402U, 0x3d581cbdbe180256U, 0x3d8667f2bdf29cc4U,
  0x3f2290783d2d8860U, 0xbdd4d6b43f0bade0U, 0x3c879366be35117bU, 0x3eb20d053ead40a7U,
  0x3f1f5ac83efe92f6U, 0x3da7eff83d6a946cU, 0xbe05da84bc2e6e00U, 0xbe22c8f8bedc6a1eU,
  0x3e5d63953f30e4c7U, 0xbf214fcf3e091870U, 0xbddc37fe3f0b7188U, 0xbf4209eb3e132091U,
  0x3e964f643e874dd5U, 0xbcb009d33e01d489U, 0xbcf6c437be02601cU, 0x3e1c3dac3ed4590aU,
  0x3dd02023bd496564U, 0x3eaf384d3e1634d0U, 0xbd7d55c83da63ba0U, 0xbeb05d8a3e360f39U,
  0x3e87aa6f3f888e0bU, 0xbdcbb56e3d9a10baU, 0xbec5d1b0be036d8eU, 0xc041d283bc823e60U,
  0xbe0811943ee0a483U, 0x3f833ce7bfd72c81U, 0x3f80148a3e10023cU, 0xbf469ef33e28b382U,
  0x3e2982853ef7b0adU, 0xbb4d78ecbe12606eU, 0xbca32970be20015bU, 0x3de851783f461ddcU,
  0xbd9d5db7401932c2U, 0xbf092b3cbf5ee8d2U, 0x3e2f8bd73e11f2b0U, 0x3b3ba0803f3b8a7fU,
  0xbdfab45b3eee1befU, 0x3f3af548bd832b7cU, 0x3d84788ebd067f92U, 0x3d601a6c3e1afd56U,
  0xbace48b53d818a8aU, 0x3e236acfbedc2c96U, 0xbcbd34483ee78295U, 0x3eb2891c3ccbef50U,
  0xbdaee207bdbb6dc5U, 0xbfb756913d9fb76cU, 0xbe2a6f1ebd692464U, 0xbf57a1e53d8fd4b2U,
  0x3f48248ebe1cc97fU, 0xbe11fdfcbd8fe996U, 0x3d9e8d193f560138U, 0x3dc7812cbe8803d4U,
  0x3e9c05d7bfad5226U, 0x3d8fa911c014fe05U, 0xc04c2de2beb7e29cU, 0xbd7975c03f92e69aU,
  0x3e0c6dea3df20f3cU, 0xbd16d4383fb4ba81U, 0x3f0aa2fcbd6215cfU, 0xbeb0028fbbd3f920U,
  0x3f8f80663fee7d66U, 0xbf3a4902c03db795U, 0x3ed3997e3dad0706U, 0x3e31d771bf75ac75U,
  0xbf27f14a3dca7d04U, 0x3dd4eb3cbfdb21e1U, 0x3eccd80e3e0c6372U, 0x3d12a65ebb4b2480U,
  0x3e1f9ed63ddc70d0U, 0xbd7393663dbbf6beU, 0xbe041eadbe0d7cb8U, 0x3e2a478a3e2feff0U,
  0x3d2062853d343e5aU, 0x3d7dc7b6bdeadb3aU, 0x3d72493abb2c1cacU, 0xbda10eaebb24a7d0U,
  0xbdc20089bac4e400U, 0x3de652573e1647a5U, 0x3dfe85d8bca38e40U, 0xbe2df3523dc4b994U,
  0xbe1a663ebdddf32bU, 0x3c5c53e0bdf988f2U, 0x3d2f7bde3e23ac15U, 0x3deb15833d3aea61U,
  0x3da692bd3e14a7a6U, 0xbe2120453dcdda0fU, 0xbe241fd9bc875123U, 0xbe25982ebdbca4acU,
  0xbdf34b29be2e5fd1U, 0xbd8b3a35be0f580dU, 0x3c5f70b53d7fc8c8U, 0xbdbc6a8a3def1e62U,
  0x3dd34f10bde7cec9U, 0xbdd0098c3c8bc630U, 0xbe2ecdb33de61728U, 0xbe3c25bdbe143458U,
  0x3d0027dcbe23ea78U, 0x3e164bf9bdaa42abU, 0x3de1be0e3df92efeU, 0xbce27da03dd410dcU,
  0xbe0565683d8af788U, 0x3c6173f0be32c922U, 0x3e00c7103d76b1b5U, 0x3d3f1764bddb73fbU,
  0xbd9ab4973c8b7337U, 0x3daed54c3d8215deU, 0x3e126ee23d779648U, 0xbe2749bfbd46e30cU,
  0x3dba6b4d3e2212d1U, 0xbcab491dbe088943U, 0xbc276d30be060429U, 0xbdf901ddbe0227deU,
  0xbdcd8dff3dc036c9U, 0xbd8602b63d22dbc9U, 0xbd896ef6bd0dcff4U, 0xbe2d0076bd8d7ba5U,
  0xbd8374aa3dc937ecU, 0xbd8d5e09be234d39U, 0xbe204e823d9cc38eU, 0xbea7407a3e8a3ed1U,
  0x3e36e8303ef1c6dcU, 0x3e0914be3c58ad20U, 0xbe8d5690bf0f0e2bU, 0xbf7f0ab33df3cd01U,
  0xbe54532d3d613f1cU, 0x3daf1f6fbeba65e8U, 0x3e7d9e4abe09d7ceU, 0xbd80275abe1bdb24U,
  0x3ddb6e163f14b373U, 0xbdcd7f08be270c5bU, 0x3d0487103d26bf38U, 0x3dab45ccbd30183cU,
  0x3d56929c3ed5b1e7U, 0x3e32afa6bd69869dU, 0xbdedeafa3d97db6cU, 0xbdc4f7f0be1d64c0U,
  0xbe11e594be34a378U, 0x3f05a7bbbd969bd1U, 0xbd9a698ebe2fe791U, 0x3bcc61c0ba3db400U,
  0xbeb94f79bd362688U, 0x3daf9ced3e8d7ed6U, 0x3dece9a83c276a21U, 0x3d27af463dd6e974U,
  0xbebd7ebebdeb322eU, 0xbf9f9100bd60a434U, 0xbc2731403da68a00U, 0xbdc3078bbc5c82a0U,
  0xbb2f2b91bbf9c2d9U, 0xbd9bcadfbdfa57c8U, 0x3ee768033ec2c4f3U, 0x3de652a43ecc42b9U,
  0x3e0ce76fbef74af2U, 0x3e5fe006bee2a6faU, 0xbf111073bd92b5e9U, 0xbd0c0de43ef6924aU,
  0x3d9d232e3d317a28U, 0x3e2650cc3e865f8fU, 0x3ee66d7abe7bf7f3U, 0xbd8cf9b5bd2834a4U,
  0xbeace4923e8c26aeU, 0xbf535ca53e216fbdU, 0x3f2157643f09d6edU, 0x3dca807dbd53a8c2U,
  0xbdccecad3e26c57eU, 0xbe0b30d8becefb9bU, 0x3ee644c73db86d30U, 0x3f0f5110bd939023U,
  0xbd158b0c3cbcc758U, 0xbe00026bbd65bcc7U, 0x3d242a3bbd0ac094U, 0xbd1475b4bd698740U,
  0xbe27ec82bdcec19cU, 0xbab44d9c3de786e8U, 0xbdc2d85fbd41e5a3U, 0x3b9c681f3d5d1d1dU,
  0xbd52919e3e03e88aU, 0xbdabfff5bcd3208bU, 0x3d0abd463d945c71U, 0x3e25053b3e148580U,
  0xbb859f403de93480U, 0x3e0ca8f0be3afdbeU, 0x3d3acaccbd8d9a80U, 0xbca327b53d7300f1U,
  0xbe164d963daf0b08U, 0xbdb8587fbe310736U, 0x3de384f0bdd9f911U, 0xbdd580443dc68e54U,
  0xbdb7537abd382f65U, 0x3e1942363e2fd96eU, 0xbc6399633d94bf8cU, 0xbd0b19e03cf655c6U,
  0x3e036eeabd0eaf67U, 0x3e00d7223ddfa794U, 0xbe0a76143cb9c3a0U, 0xbdcd8b2737888000U,
  0xbd83cc17bdb22784U, 0x3d7a0f67bd955e18U, 0xbe080addbe017434U, 0x3e29d618bde31792U,
  0xbcb2b05fbe151324U, 0x3c9191683d4a6f66U, 0xbd12c6953dd17a59U, 0x3ddeafc33df5cdcdU,
  0x3ca0fe563e242035U, 0x3e2cb058bd71ad55U, 0xbe248d67bdb00013U, 0xbe2bc43fbd5a2996U,
  0x3d2b2ce5be313fe7U, 0xbcdbf73c3d4e010cU, 0xbe0c18313e178b5bU, 0xbd95a2933de93821U,
  0x3c953eddbd6173e6U, 0x3d7fe0c6be1bc077U, 0xbd62913ebd220fb8U, 0x3e2da174bdaa99cfU,
  0xbe01adf73e269f02U, 0xbdec0402be1564a5U, 0xbe19dcd93d842cacU, 0xbd915472bd958308U,
  0xbc23b4c3bda660beU, 0xbdae05c6bc491540U, 0xbe178d643d2b5a1cU, 0x3d4e39c93d3a3308U,
  0x3d4395b93e1a814cU, 0x3cf27f593e12a892U, 0x3c0bf9d93db61ff4U, 0xbde6bef63ae52366U,
  0xbdaa4873bcd4f0deU, 0x3e176fd43cb27bd8U, 0xbe2564673d88a8d4U, 0x3dd61408bdcefd74U,
  0xbe097075be215dd2U, 0xbe257a06be0201fdU, 0xbdedb833bd692a26U, 0xbd92d3d23ddabfd1U,
  0x3decff103d34dffeU, 0x3cc72f993d2de250U, 0xbdbef9d1be079c87U, 0xbe2eb570bd3b16e4U,
  0xbe392c87be2d88afU, 0xbe306a753e21aefdU, 0x3dc163b03e17dbc0U, 0x3dd7ef263e1b6a3eU,
  0x3e0f844739f2c000U, 0xbc297ad0bda30648U, 0x3dd4dee43e196aa2U, 0x3d61ab003d161f18U,
  0x3d10e424be1ea639U, 0xbe1337663d3aab80U, 0x3d6607b1bcbef87bU, 0x3e24b31ebd86c328U,
  0x3af6a3a3bbaabe31U, 0x3da895c43e2472f7U, 0x3dc453443d945fbfU, 0x3da6e698bcbc5de0U,
  0xbd8ab577bca87dc8U, 0x3d9297283d9b3835U, 0x3d5691053c76e3bdU, 0x3c44c32a3dd703a4U,
  0xbd8043a33d9d38f9U, 0x3da729f73d48bacbU, 0x3d88d37abd3e43b9U, 0xbd55bf89bd6a6f0aU,
  0xbe22459abd44376cU, 0x3da53e08bd109c81U, 0x3e110efb3dcc2400U, 0xbe3fd4be3c831428U,
  0xbd79999abe134e20U, 0x3efccc2fbf8b8e41U, 0xbedbcfefbea34a7cU, 0x3d8321a2bd18564cU,
  0x3d59856d3f756ca4U, 0xbd2c805b3de0495cU, 0x3e3213be3e8ecbf1U, 0xbf1d61e5be827ce4U,
  0xbfc8b596bddff522U, 0x3e6cd16cbd1c1cffU, 0x3eb905333dd59b84U, 0x3ec32a283e1fa35cU,
  0xbd348334bd9cfdd0U, 0xbd446b2cbeb9c6b7U, 0x3e7f40fabfb2e119U, 0xbf2a5bc6bddbccacU,
  0x3e89cb073e1029ecU, 0x3c93d180be4635dbU, 0x3dbb32cebd48263bU, 0xbef112d13e02d71cU,
  0x3db5db20bf061061U, 0xbd03b7443cf5fd08U, 0xbe050838be0af981U, 0x3e01d23ebf531b8eU,
  0xbdd4d62fbcb1a3a6U, 0x3dc436a13b796900U, 0x3eb7f8763dbfe414U, 0xbf9340f73de9ce84U,
  0xbded1cfa3daaf654U, 0xbeadb8033e04f24aU, 0xbe8e54f13e65b0a8U, 0x3e07f9883dff2d4cU,
  0xbd5d8611beb3bf62U, 0x3e21557abde755a8U, 0x3eb76a4f3e5e8102U, 0xba4d88053f110ad0U,
  0x3f14e49e3e6b9aa7U, 0x3d3a0f9cbf110488U, 0xbe198f09bd94793aU, 0xbdff9f85bf88cbceU,
  0xbd16045e3efef184U, 0xbf79f4e23e1ea252U, 0x3ecc1355bfbd3894U, 0xc06f1883bf26e894U,
  0xbf1feabcbe69ef64U, 0x3e5989d03da7b152U, 0x3e8ba19c3da291e8U, 0x3db33f8c3e9fbdbdU,
  0xbe6c44233c0104a0U, 0xbe932a8fbdd1f762U, 0xbdc849403d4a6338U, 0x3e147d1bbf8bb579U,
  0xbeb300403e007381U, 0x3e18061ebcd9d3b8U, 0xbdd09cf73e2bf425U, 0x3dfbb26bbccaf3d0U,
  0xbfcd65913e9d434fU, 0xbf052497bbe6964bU, 0x3d8f7a4cbdc45ea1U, 0xbc33093abe3069e0U,
  0x3e7e96953e9f3775U, 0x3ecd452abbdb49e0U, 0x3d960558bd1330acU, 0xbdf17b25bebca754U,
  0xbd1eb30cbfc9ec57U, 0xbfaf911fbf8269c4U, 0x3e1b0148bd1acd88U, 0x3c5973703e250691U,
  0x3e1d5672bf397ad8U, 0xbce1ad453e2fc4d6U, 0x3dcee8b4bf80ee9bU, 0xbd6a86a43d92bd48U,
  0xbf6af906bdf5c29aU, 0x3ddc7e2cbe206f29U, 0xbe082012bdb12815U, 0x3ce988c33d86fe5aU,
  0xbeec65ffbdc42c3aU, 0xbf4445e6bd94dc26U, 0x3b568b403d066ffcU, 0xbfbf805e3da38f14U,
  0xbe8c2f523e9f5a69U, 0x3da41c043dce5b7cU, 0x3e75b848be4f6795U, 0xbdf706bc3e03d8a3U,
  0x3d914473bd84d0e6U, 0x3de0ec91bf6f3ae8U, 0xbf172f4ebe8a2047U, 0xbdbddb403ebdca32U,
  0x3d1c75b83e2c7f3aU, 0xbd17aec4bf132cbfU, 0x3a7794f7bf50dd59U, 0xbf8caf7b3d384210U,
  0xbd1c7180be93fcebU, 0xbd711e48bed38aa6U, 0xbdf48b553e852f57U, 0xbe480131bdc490fdU,
  0xbf353bd2bddb1bc6U, 0x3dfc44b43d96ee29U, 0x3efc7cfbbdecb087U, 0x3ea0bc21396e8000U,
  0x3dee218c3b047840U, 0xbe51c9233deca3eaU, 0xbd41642abe023b4aU, 0xbc60a8103cf6d138U,
  0x3c8149ac3d8a6c7aU, 0xbb5e0cf5bd215e10U, 0xbc8230ba3d84c3d9U, 0x3db1badb3bcad1dcU,
  0x3dd1fe21bc1baa50U, 0xbdaa194c3d706f35U, 0xbe0ee3683d1da782U, 0x3d82b3b73e2ff8e0U,
  0x3d6a488cbe188504U, 0x3dd47820be1d22ffU, 0x3cc48d763e04160cU, 0xbe13bba4bd60f22eU,
  0xbe4cdcf8bdead792U, 0x3d4e20f83e055e49U, 0x3de658d53df778ebU, 0xbdb8eb49bd39060cU,
  0x3e18bbf2be263011U, 0xbe0532ab3dccd9c0U, 0x3cebdb45bba3d0c0U, 0xbc86d3483e0852e8U,
  0xbd4f232abe0da08cU, 0xbcd7be48bd8c6ffcU, 0xbde53897bda5e96aU, 0x3d8bb240bd7b977aU,
  0xbd8386873c843a10U, 0xbe1c199dbe009138U, 0xbcf0b6913dda2b1dU, 0x3e0654203e1de07aU,
  0xbd7908623da5cb54U, 0xbdac4ec93e0f2353U, 0xbe2311e23dec8e12U, 0xbdf6a7a53dedd941U,
  0xbe35b1fabe1a565cU, 0xbcc626d8bddc5438U, 0x3cbf9450be25a5a0U, 0x3e09d546be4f5ae5U,
  0xbd7644173ce2d7ddU, 0x3def3c013e154aa4U, 0xbde43ba9bd43932fU, 0xbdab2e653d2845f0U,
  0xbc06a6463e04e530U, 0x3dc71f023ddcb99dU, 0xbe27ef073cebba78U, 0x3cb7acf03df10d78U,
  0x3ca67534bda4567fU, 0x3e08e5f0bc710560U, 0x3c8508603e142700U, 0x3e2923bfbe363feaU,
  0x3d43474b3eb3c8a3U, 0xbdb2fd9fbcca7018U, 0x3ed702463ee8d994U, 0xbf3811fa3c93fddeU,
  0xbfa1483fbd3b5949U, 0xbf0f57bfbe30aa65U, 0xbf391cc8be1b4250U, 0x3db1dc1b3c29692dU,
  0x3e1d833d3f88cb04U, 0x3f09abce3be045a0U, 0x3da24e14bd33a378U, 0xbc9ac9d8beb09aacU,
  0x3e952377bf15bbfcU, 0xbf7769f8be902ab3U, 0x3f12de0cbd678fd4U, 0x3cadd4a03f0cd6d4U,
  0x3eee1f8bbf35a7ccU, 0xbe43264fbd093144U, 0xbc8762983e848bdeU, 0x3dc632b8be065626U,
  0xbd59e43bbdd09dcbU, 0x3c80297abf5dbb5dU, 0xbd82a3593ebebe45U, 0x3bc535e7be2a5c5bU,
  0xbe9632353de6355cU, 0x3dd623dcbdf190d6U, 0xbd6778f63d352694U, 0xbee9372f3d372b08U,
  0xbdc87eea3e1b8f46U, 0xbdf7efbcbcf3ce48U, 0x3e3df61fbf2b7c02U, 0xbd9bdd0a3f035f3fU,
  0x3e792162bf141de7U, 0x3eb98e99be81a6ecU, 0x3c55aac8be236ecfU, 0xbe1256b93ec6581cU,
  0x3e230eb8bc8728d8U, 0xbd302af8be28d790U, 0x3eab04ddbee3f561U, 0xbe7505ad3dbe511cU,
  0x3ee06e20bf7b2684U, 0xbed487b3bf755aebU, 0x3bdc19643e71e16eU, 0xbdc29543be70a397U,
  0x3e161ef13ca66fc0U, 0x3e1d58fcbebd03bbU, 0x3ebec0a8bdf9e6b4U, 0x3eab9377bd295338U,
  0x3d139618bdd678c1U, 0x3df8802d3de5e971U, 0x3e04b131be06d56dU, 0xbe132036be1c37cfU,
  0xbdd40f573de3acd8U, 0xbe1b07613d7b8244U, 0x3b71d7773e0207bbU, 0xbdaa5a423e1d5c6fU,
  0x3c5848d53df4d758U, 0xbbbbc1aebd9cd48aU, 0xbdee386f3da5fba1U, 0xbdaa52faba30b900U,
  0x3dba81d0bde40968U, 0x3cb61bf83e170eadU, 0xbde2abc1bd96b7e8U, 0x3d8279e1ba4126fdU,
  0xbdf3466abc959b30U, 0x3e16f3383e0539a0U, 0xbc214a4fbceeba60U, 0xbb994f533dde8a64U,
  0xbe16c05bbe13664cU, 0x3dab09943dafb20cU, 0x3cd6549d3d200f64U, 0x3c234e30be288fcfU,
  0xbdadb1e6bad4f71aU, 0x3d668689bdd42cfcU, 0x3ba75d663d1e4f70U, 0x3dea0e0c3e1d375aU,
  0x3dca96083e03948cU, 0xbbf18622bdbccad2U, 0xbde99ee7be27d6ffU, 0xbccb3210be3079f5U,
  0x3d6a871cbe0d1d96U, 0x3d01eaccbe014de2U, 0xbdedf485bdb25ae2U, 0xbdd81df2bd34197fU,
  0x3c843fb33d6ee412U, 0x3c925ad8bd499728U, 0xbd89286abde5d73cU, 0x3de9e880be144ceeU,
  0xbb169b80bdebf19cU, 0x3cf7c638bdf4861cU, 0x3d0232a63e05d409U, 0x3c05fa0cbd8925faU,
  0xbb786ac1bd80ea3cU, 0x3ce27275bd81d336U, 0xbdf0ccf73d65f270U, 0xbd4e3eccbde22458U,
  0xbc8936103cdc9e70U, 0xbe0d4ab03cb57820U, 0x3dba9d44be0447aeU, 0xbf1f7d1f3edfa2c5U,
  0x3dd163e33f102592U, 0xbdc53ff8be011ec2U, 0xbeda67e9bf661c0cU, 0xbf4b95a53cf99cdbU,
  0x3ed2976bbddce51eU, 0x3f3483e1bf0e1339U, 0x3f80a256bd30f92cU, 0x3d422e8dbeaad962U,
  0xbe60a57b3e37d32dU, 0xbf2cd96dbe1f2e1fU, 0x3e219c84be14a3c0U, 0x3d9374343d9b20fbU,
  0xbe76c3e73f4d5356U, 0xbbb921ee3e7b0d2aU, 0xbeebbd5c3c8c89a0U, 0xbe179ac4beb5d710U,
  0xbf2c6720bea5ce7bU, 0x3f0cf723be2e0477U, 0xbe2abb593e9d7978U, 0xbe099e34bdc50a0fU,
  0x3d5f026cbd5f9cb2U, 0xbdf62dd83f8e287eU, 0x3e029eb6bebc9088U, 0x3eca69a23cae52b8U,
  0xbf1fff1c3e08c04eU, 0xbfba17b4bc23b720U, 0x3e1e29223dd80bf0U, 0x3e640eb93e0cd45aU,
  0x3e89fc62bea34ee3U, 0xbd928133bd86325cU, 0x3eb73d943f9c5d66U, 0xbe0a25433e85993fU,
  0xbe12b153be8e75d1U, 0x3e697a86bf7e6095U, 0xbf573da8be42edadU, 0xbe16465d3f307851U,
  0xbdbb9907bd936894U, 0xbc0880803f6ae2c8U, 0x3f4583aabed889d9U, 0x3f44eb1fbe1e752cU,
  0xbf2fd2553f75635eU, 0x3e9336283f7f91c6U, 0x3f4be8393f233894U, 0x3e9db6873ec199e2U,
  0xbe7d08cabd6de54aU, 0xbced9d60be5d9c03U, 0x3e5b4d21be0e366eU, 0x3f2dfd79bd81daccU,
  0xbe0d4606be002285U, 0xbcaf61b03d64ea34U, 0xbe24a4473da86830U, 0xbe1137d1bc2d0720U,
  0xbddf7883bd01e3e8U, 0xbe291fec3deb1f6cU, 0x3dcc17c0bd69a4f4U, 0x3dde7494bbcb0180U,
  0xbdd347613d6f91ccU, 0xbdee027e3c4868e0U, 0x3d084d40bdff5095U, 0xbdb4a8b93de43b9cU,
  0x3d02f5b4be2638f3U, 0x3de4019cbdabe7e2U, 0xbdb309603d271414U, 0xbd040648be2268b3U,
  0x3d1e16f8bda599efU, 0x3da10448bdd181d1U, 0xbd64aaf23c8e4ba0U, 0x3d94c84cbd8e8783U,
  0x3c8ee650be02f422U, 0xbd63c842bdfc91eeU, 0x3db16220be295149U, 0x3db8f78cbd9d5bccU,
  0xbdefd1893d8e5b68U, 0x3c25afe0bd6f962cU, 0x3e27cc223d8aecc2U, 0x3d2f42183d8657b6U,
  0xbdb7388b3e235724U, 0x3d03c728bd300614U, 0x3c85f9a0bd72f22eU, 0xbd2d4a3c3e2b6f80U,
  0x3d9536c2be078917U, 0xbd80af963e0f1028U, 0xbd8a3f4c3d75eac4U, 0xbe26f718bd36299cU,
  0xbdb183d6be1acad2U, 0xbe2ed02a3dba7bdcU, 0xbcba4860bdc27fe4U, 0x3dfe4fb8bcf4e430U,
  0x3d14be5cba19d100U, 0xbd1b17a03e1e94b8U, 0x3e29f4a4bcb234c0U, 0xbe18ffeabd18c38cU,
  0xbe00e628bc2d8880U, 0xbcb47ad0bd8fe60fU, 0xbe09b30bbdfde17eU, 0xbe23c4be3da91314U,
  0xbd3dddc43c9cd880U, 0xbe031bd83e27b07aU, 0x3d041a603dd7fcd0U, 0x3952cd66be4481e1U,
  0xbdfaf59c3e8ac2b7U, 0x3d921838be1e961fU, 0xbe65f57a3c2c760cU, 0xbf0ee5763e0c3c38U,
  0xbe52abf43d3c41f1U, 0xbe1113a1be7461e6U, 0xbe8ad25a3e03eaf2U, 0x3df6f5ccbdb4f10fU,
  0x3d9924073f01afd7U, 0x3d95eb213c28a8c0U, 0xbdfa230bbd948e88U, 0xbdbbd203bdf199a2U,
  0x3e58ca7b3e015431U, 0xbdf4cd91be4aa99fU, 0x3d989fa9bd7b4456U, 0x3dc81710be36fb8aU,
  0x3d8fa171bdb09b9fU, 0x3d79683b3c98be88U, 0x3e033eccbeb8ece6U, 0xbd7714fa3e114f0cU,
  0xbebd92efbe1a0034U, 0xbd82a396bbc69073U, 0xba916900be06f735U, 0xbd1dbe633e01feb6U,
  0x3a95b8dcbcb84e60U, 0xbf003337be01e5e4U, 0x3e21b4d63cdedf68U, 0xbe1c2d30bca66570U,
  0x3eef0658bd11cda0U, 0x3c17f5b0be17b450U, 0x3e55f94ebcd33b8dU, 0x3d11933c3e50b676U,
  0x3e64e2a5bd9b97e4U, 0x3e93470f3e9be933U, 0x3e87fe133e94a0f5U, 0xbd89f41b3dd43ab2U,
  0x3e20cb4a3dd539f4U, 0xbdadecfcbf08dae5U, 0x3f04cf953e652e99U, 0xbec11394bd2c9380U,
  0xbe3e08cc3d3da91cU, 0xbf40e68cbeebc8d9U, 0x3e5fbc893e5b905aU, 0x3e2fe7813e01545aU,
  0x3dba25403de24f78U, 0xbca44a88bd45f5c4U, 0x3ec5bbe6bd75a856U, 0x3e3f1c423c834f38U,
  0x3e24b53abcce9fe0U, 0x3f4be078bed2fc04U, 0xbda399393deb5c34U, 0xb9fd5c003d2da8d8U,
  0xbe8598a23faa0b4dU, 0xbefa20f03c7d0246U, 0xbea130c83ecd6b0bU, 0xbef460da3eef401fU,
  0xbf71e9e73dbcefb0U, 0x3e34318cbe1b37e0U, 0x3ed2e3383e333ea7U, 0xbce76f503d06e3e4U,
  0x3e0adcb03d0f37d4U, 0x3d48c248bb060ca6U, 0x3e89fc4dbe4d97f6U, 0xbf258bf63e73b15fU,
  0x3e44d3613d7e21d0U, 0x3deb78683ef3cc03U, 0x3ddafccc3cae1435U, 0xbe642ca83e0fb898U,
  0x3d7910fc3e04306eU, 0xbe1316a23da21488U, 0xbdcba1c3bdaab867U, 0xbc75b2a3bf9220a4U,
  0x3de91b1cbc95acccU, 0x3e3c2e42bdcebbdfU, 0x3e1eb650be199a7dU, 0x3f355ca2bdfbf9fdU,
  0xbb74ee403bf290c0U, 0xbe25a17ebc24d990U, 0x3ee05cbb3e6f4374U, 0xbe2df657be208209U,
  0xbdeb380bbf098ed2U, 0xbcb28d283e46dcb1U, 0x3e6027243e2eb054U, 0x3e48d2cc3f2bc818U,
  0x3f8746df3eab44f1U, 0x3e2ddd3ebe8f3416U, 0xbd01b7a8bdccfff8U, 0x3dc81970bf119df7U,
  0xbceefbc63e72b4c6U, 0xbf2d48403df96718U, 0x3f8522d4bea67a8fU, 0xbf37d6d3bfbb8e38U,
  0xbe96ad59bcc42e23U, 0x3e52b1353e0e82b8U, 0x3df1d1113d7a40e0U, 0x3c6b7a20bf21923cU,
  0xbea15ff3be1183fcU, 0xbe568e3d3daf9f50U, 0xbd290c803dd92c24U, 0xbd90c775bdc08cddU,
  0xbefc66f23e56654aU, 0x3d3032ac3c060600U, 0xbf8aea843ec58edeU, 0xbfd239afbdb18a8dU,
  0xbf935c9d3ed6ce43U, 0xbf5e3823c030e118U, 0x3e9086753e067880U, 0xbe7036bdbeb02e78U,
  0x3e0ed44f3f8ad2f4U, 0xbf238f44bd0e6110U, 0x3cf949403da0c820U, 0xbe08fa973dc05167U,
  0x3d5b9d05bb43183cU, 0xbfc2a586beb84acbU, 0xbeeb0ef7bdf6ae02U, 0xbe1620ebbc75f70dU,
  0xbf8bac4a3e20694eU, 0x3ec6dd74bd5fd5beU, 0xbdfdcc2cbde2183aU, 0xbcfb1a60bdf09aacU,
  0xbfc13e7dbe2e2f6eU, 0x3d754473bf66c558U, 0xbe1082f8bf211c8cU, 0x3ec9d896bdab8006U,
  0xbf5706813e1b11eaU, 0xc080fcd83e01e688U, 0x3c548d70bda0a4a5U, 0xbf3f6b88bd441740U,
  0xbfd49ab33d9061d9U, 0x3d5596983df4cc18U, 0x3ebacf9e3f16619bU, 0xbe2d7a503f159ae9U,
  0x3e90b3c1c006394bU, 0x3f2e87aebef3d6f3U, 0xbef054d8be8d1786U, 0x3e081c48bee4856aU,
  0xbd4f03d2bc3f8580U, 0xbde78142bde2a6d9U, 0x3f55700a3e48e3f6U, 0xbfb7f7a53e02f7c0U,
  0x3ebdcfc73ee8c787U, 0xc01f8038bfa80d32U, 0x3c9adc6e3f355182U, 0x3e3ff2773e01762eU,
  0xbe76cdcb3d317ea8U, 0x3dd50394bf278324U, 0x3eed3ecf3dbcfbccU, 0x3f1e069a3c1abb80U,
  0xbbbea560bd6515d0U, 0x3ed43a3d3e49d732U, 0xbf1e220fbff4ee7eU, 0xbdcd18a7be1a503cU,
  0xbe766dca3ec59238U, 0x3fe4a794bdc8bb6aU, 0x3ff2b30c3ea99aa9U, 0x3f38cfd03f9f2a6bU,
  0x3f9d94fb3e0faca4U, 0xbe18517b3ed4edafU, 0xbe859bb4c013d805U, 0xbf2c6581bc9c2c10U,
  0xbe1329143d33b7e8U, 0xbdc581023eeccb54U, 0xbe9963103f33c723U, 0x3f394ff13e370a2bU,
  0xbf934ebc3e2a677eU, 0xbd408d6c3ea50fedU, 0xbfa6d3d13fd7ee46U, 0xbf5768663cd7b888U,
  0x3b9e9fe0be71248cU, 0x3dfb7ecc3cd06768U, 0xbef2369e3e0d94f4U, 0x3e11e4ef3f38344aU,
  0xbc9b4148bf3dcfe4U, 0xbbff9477bde82de6U, 0xbf77a566be2f6415U, 0x3fc856bc3c726e20U,
  0xbe1c0af8bbd11060U, 0x3db0bd023e2fa0aeU, 0xbfc98d81bd5f8647U, 0x3dac91b03e24af3eU,
  0xbf4347a13f0a912aU, 0x3e0a1f46bed97390U, 0xbed3fe263fa14e24U, 0xbf5746283ee5d0b7U,
  0x3f18fb1dbf1f5404U, 0xbe0287d4c00aeadfU, 0x3db18a443d7ef05cU, 0xbc3e4ef0bef42540U,
  0xbf59a7443fae8074U, 0x3e917458be266fa0U, 0x3e2770123f8622e3U, 0x3ed84c6c3ff7bc6dU,
  0xbfaf2144bf675fc2U, 0x3e06a6273edb4d8aU, 0xbe557b5d3c1c5b30U, 0x3de165783ffa7936U,
  0xbf0b292fbda3a5d9U, 0xbf862bb8bc082450U, 0xbdf87d603dabf91cU, 0x3f6134263d9ffce9U,
  0xbe20e289bf00ad67U, 0x3e1c2fdc3d96b4deU, 0x3de6901e3f48c23bU, 0xbd2fd35dbd7ea724U,
  0x3e1ecdea3f10a6e9U, 0x3f12fe613f78bbc4U, 0x3f10a1243dcbc960U, 0x3d5545b33eba66efU,
  0x3e76623ebf9ba992U, 0xbe9bd4d63e22ae12U, 0x3c8b7ad8bcf85a38U, 0xbe0ef9f03f1eeaf5U,
  0x3eaca83a3f168eaaU, 0x3de5f70f3cccd843U, 0xbe85c85f3e077494U, 0xbdfaefd03ee94d8aU,
  0xbeb506d23e42e93fU, 0xbe8ed3a93df4f010U, 0xbccf46983cf06875U, 0x3deb57003b882ae0U,
  0x3e9a03dd3cbb4608U, 0x3e2223783e06d56aU, 0xbd7f8a42be93abf5U, 0x3ebdc2a73e2fe2eeU,
  0x3f07d58e3de5773cU, 0x3f0d50453d9832a8U, 0x3b8d2a40bdec2826U, 0xbd97ab8b3e03475eU,
  0x3f89675b3eb67a2fU, 0xbe223d3c3e159f84U, 0xbf894f163ddcc842U, 0x3d798438bf6d2130U,
  0x3e9cf8a33f452fe8U, 0xbed68615be248c42U, 0xbf24606bbf101587U, 0xbd7488febf42f99dU,
  0xbd526282bd805307U, 0x3d65e7003c3d1e0dU, 0xbf08daf93de26027U, 0x3f1fa4803d001334U,
  0x3f4363753e694f1bU, 0x3f2a0bddbe5fa079U, 0xbf7a0075bf70a0d6U, 0x3e9d1cff3e63bb6dU,
  0xbb80b93a3e10d1b4U, 0x3dfefe48be47cb2aU, 0xbdfff161bdbb022aU, 0xbf92837d3d6dc540U,
  0xbcd91f683caa2298U, 0x3dd276843daf291cU, 0xbdb19b38bdeac160U, 0x3d46ebfcbe18a3ffU,
  0xbbb552403b1b0580U, 0xbadf8c803d4d28f8U, 0x3d1d8734bd2906c8U, 0x3dd30a803d8d8c5eU,
  0x3e202bf4bd5e4050U, 0xbe0ba170bd3cc8d0U, 0x3d028e90bdea4a52U, 0x3d719458be1ab876U,
  0xbcb30150be1efdbbU, 0x3e3040aebdc2a585U, 0x3d74be343e0ea02eU, 0xbdccb854bd680130U,
  0xbd4b4a26bda40d25U, 0xbd9517bb3d4ac4d4U, 0x3e1ecc1cbd7de382U, 0xbc0950d03d109b34U,
  0x3db5025c3d2dd3a0U, 0xbe24e43b3e2bbe36U, 0x3ab93600bdae394eU, 0x3e2a624cbd349e7cU,
  0x3c8f00d03ca3f248U, 0xbe0048ebbe04b06bU, 0xbdded3143d261cc0U, 0xbc06ec103cd88b68U,
  0xbe0e4e02bbcc48e0U, 0x3e0f08f83de8ce7cU, 0xbe1dfa82bd962a6aU, 0xbe08fe563e1b232aU,
  0x3e27670a3d4ae6f4U, 0x3e1206dabe006cbdU, 0xbe0aebd23e06ff62U, 0x3d487e283d759e8cU,
  0x3d2c2940bc015ee0U, 0x3d87c1c03d07508cU, 0xbe07e4fcbe0a2ce2U, 0xbe25c9cebde73fc4U,
  0xbd5e76f4be00843aU, 0xbdcd1a57be0d03efU, 0xbd87c6463dd78b54U, 0xbd27418c3dc5a098U,
  0x3dbace503bd11b80U, 0xbd8e3ffabdc5e8b7U, 0xbdb5cbe73cd86230U, 0x3e0d1e083e0c2dbcU,
  0xbe18a4b3bce3fce8U, 0x3d62b88c3e116bc8U, 0xbe26cddfbe2d1b81U, 0xbf2629413eaf03f8U,
  0x3e3c897c3ea18367U, 0x3d7c40503e313c7aU, 0xbdfa62d8bf86c65cU, 0xbf3e09323d51beffU,
  0xbe107e09bdde4b47U, 0x3f019250bf5d5578U, 0x3edd57fabde9f332U, 0x3e0d7208be4f0325U,
  0xbe0e00b83effbbc9U, 0xbec6eedc3db4ccb4U, 0xbe18676e3e14abfaU, 0x3d1e99e83e04e502U,
  0x3c15592f3e9d2284U, 0x3e2bd1b7be41cc05U, 0xbec40cb1bc91d168U, 0xbd478f5cbe5fc0a0U,
  0xbeaff9a8bed2f09eU, 0x3f0b40ba3e30e742U, 0xbcfe8d783da5b697U, 0x3e1c5f863e2d4dfeU,
  0xbeabc3cc3c973a13U, 0x3d08a8de3f7d18bcU, 0x3d770e90bde37c40U, 0x3e29a8643da0f4e0U,
  0xbf299bf8bdaa358cU, 0xbfd1555c3e12afcaU, 0x3d89bcb8bc895460U, 0xbdb32d44bdb54f48U,
  0x3d9e7712bed8ffd5U, 0xbd7e19c4bde36d75U, 0x3f1a85013f1ac5dfU, 0xbe2900983f01af3fU,
  0xbdaab689beb9b3baU, 0x3ed472efbf3d6617U, 0xbf83c078bf02848fU, 0x3dfbd1503fa15656U,
  0x3d19cf10bc9043e8U, 0x3e0397463f5e1406U, 0x3ede311fbf1c9ef2U, 0x3e258c453c71e520U,
  0xbf328bf33e8a156bU, 0x3ecc0ba03f22827cU, 0x3f628a5b3f2a7a11U, 0x3e0b91723da83323U,
  0xbe8085bf3d9ab5d4U, 0xbcb0afb8be991255U, 0x3e9bc447be0438e5U, 0x3f45eac5bd32eee4U,
  0xbd6118dabd0a50f8U, 0xbe2178a73e10cc5fU, 0xbd6ed6e1be0938ccU, 0x3d8f2b74bde49dbcU,
  0xbd16be48bd02ffefU, 0xbdffbc873e192dc6U, 0xbdedd08f3e0ac4a9U, 0xbd08a3903df7f4a7U,
  0xbe0ca19dbd46be62U, 0xbd57254a3e01005fU, 0xbdf910a4bd977096U, 0x3d28f2a33d4a9648U,
  0xbe0ca528bcc20950U, 0x3d32d8343e0093e5U, 0xbdb32a3d3cadd23aU, 0x3df24062be22eb44U,
  0xbe1b7e9cbd156084U, 0xbd51b6e8bda6b5ffU, 0xbe12db24bd69c1adU, 0xbe3505153e09d916U,
  0x3c3071a0bcb558c6U, 0x3c0c8a30be2033b4U, 0xbd60d3d93c485230U, 0x3dcaaff8bde04380U,
  0x3d133fd4be3ad5e9U, 0xbcbd8f763d55e900U, 0xbe248f56be0f1a5eU, 0x3dd69d6a3c2f8530U,
  0x3d65b0383db16a78U, 0xbdeb07953dfa9b18U, 0xbdd94c51bd0cc067U, 0x3dd68a04bdc26ab2U,
  0x3e1b0b39be07d026U, 0xbddb0ff3be310fc2U, 0x3e1966473e009568U, 0x3e05e1223c796af5U,
  0xbe16f5263db1f438U, 0x3e25e068be1113c4U, 0xbd06c7883cb5efa0U, 0x3cf6f290bdcfc012U,
  0xbad6fb9bbd52b4a0U, 0x3d3026f03be92b00U, 0xbc4b52de3e02b092U, 0xbe0941003c95deafU,
  0xbdefd55fbe2f1bd3U, 0x3e06dd57be3b4dc1U, 0x3d1210033de187c0U, 0x3d818178bdb5f55eU,
  0xbd8cbcb73dcc5380U, 0xbdce99413de3bb04U, 0xbe04f442be039a46U, 0xbe29fa0abd57c490U,
  0x3e0242553de94f4aU, 0x3dde36ccbcb345d0U, 0x3da33448bddbf3f3U, 0xbd2015ad3dabb1fcU,
  0xbe47252d3df9a0b4U, 0x3e0e0194bdb6dab2U, 0x3d8dfe04bc917a60U, 0xbe2e28963d340fd6U,
  0x3d1b7198bdfdeb25U, 0xbdd779b93defa110U, 0x3dd37a3c3dcdc95cU, 0xbdcd508e3e0192f4U,
  0xbd731b523c23cebbU, 0x3db5a5123c837daeU, 0x3dbc30423df772e8U, 0xbe1d514cbd32d1dfU,
  0xbe1b29e13e02a811U, 0x3e1a74813deba8c0U, 0xbe0e4238bd4662a1U, 0x3d9273d83e21a8daU,
  0xbdcaa5c8bdd15de6U, 0xbdc2acf33e09bb8aU, 0x3dc2c8a83d89e1a7U, 0xbb8e649d3e1ede52U,
  0xbe1e17653e11020aU, 0xbe01ab77be1113e9U, 0x3e05026cbe03bf43U, 0x3dcc4cef3d5d5348U,
  0x3bd0425bbde7e10fU, 0xbd82e9dd3dbfb1fcU, 0xbdaf0f64bc1444eeU, 0x3c0e3b60be1dfeedU,
  0xbabf9f643e14a50eU, 0x3bbb1295bdffe7f4U, 0x3d85e133bca2d2f4U, 0xbde018dbbe11a3e9U,
  0xbcd1fda8bc92b130U, 0xbd926ab4bdf8728aU, 0x3d4978013dc24433U, 0xbd35ef78bd91c6fcU,
  0x3e1f7406bd8f1287U, 0x3dc8fddcbe0d6d2aU, 0xbe18e931be195a02U, 0xbc68dbd03b96da15U,
  0xbc5712313e2edcd0U, 0xbd7af4f83d12c452U, 0xbcc5c2a0bd81be69U, 0xbe3a612ebd879aeeU,
  0xbdb1f5ea3e16179eU, 0xbd1c63933e3f021eU, 0x3ec011b33e50def0U, 0x3d1c9c9c3e13e4a0U,
  0x3e9e08653eba59a0U, 0xbf2f5b71be05b603U, 0xbedeccfcbd63fdefU, 0xbe54d7bebeef03a1U,
  0xbe8fe0e9be30fbadU, 0x3e784659be2a8ea8U, 0x3d8959703f511fccU, 0x3f1b7647bd47dacaU,
  0xbe02e845be0e78fcU, 0x3be037e0be305723U, 0x3e98575ebe88d955U, 0xbf02a735bddd65c0U,
  0x3f1eec68bca946b0U, 0xbdf03f163ee4555dU, 0x3f08d855bf00b634U, 0x3e74cb0dbdc57bfcU,
  0xbccf22203f18605dU, 0xbe212ae93c950ea0U, 0x3ea7f26d3e1e73aaU, 0xbd32c033bf09783bU,
  0xbd97bbb53e905e83U, 0x3db14dd33cc28158U, 0xbe2d5e0f3e1a34b2U, 0xbf2b32d6bc3323b0U,
  0xbe315242bda7c95eU, 0x3e2f0aa6be23fde1U, 0x3ee1092a3e081363U, 0xbd8e055fbd6c94f8U,
  0x3e150428bed934ebU, 0x3de2e2443d88bbc4U, 0x3d8a3f96be47a3e0U, 0x3e785ac1bd4619e7U,
  0x3d9ec3913e22f99cU, 0x3a0684003e91381dU, 0x3e0a134e3d0e583cU, 0x3df4a1603ee0315dU,
  0x3e0f4fd6bee2c989U, 0x3e80886c3db1e158U, 0x3f2e41a8bf0200c5U, 0xbef09244bf3a0207U,
  0x3e853bde3e76feb6U, 0xbdeed6cdbd96f979U, 0x3f0b61573d9deeb8U, 0xbdac743ebed1da99U,
  0x3e7d8ff0be1882e4U, 0x3ebb601b3dbec124U, 0x3e0c283cbdce01eaU, 0xbcd181b8be283a80U,
  0xbd03bd10be1ec742U, 0xbd907da8bde6e17fU, 0x3e20a184be1f138cU, 0x3e067bac3cbe62a0U,
  0x3d30bf883dba3968U, 0x3c7b7960be19d17bU, 0x3c941020bddc5d38U, 0xbe2fce74bd841c91U,
  0xbdd9456f3db14728U, 0xbd72ea2a3e060fceU, 0x3d1c0394bd461628U, 0x3e1a278a3d597bd0U,
  0x3de9c5243e1aa206U, 0x3e1ec48e3c07e410U, 0xbdf7d2d0bdf6847cU, 0xbd1c0af0bda77375U,
  0xbd5eb4663e15ab58U, 0x3cbaa0d03e1f56fcU, 0xbe29f3e7bc086dc0U, 0xbe0547603d10a608U,
  0xbd1f5ef0bdae98dfU, 0xbe070be8bdefc6abU, 0xbdb54b303df36670U, 0xbd3f19f43daffc10U,
  0x3dcf58a43d8a8f0aU, 0xbd738f943e1e0308U, 0xbcd51ed03cf36c98U, 0x39d3ea003d0376d4U,
  0xbe2871c1be05f270U, 0x3db0cee8bd9f0693U, 0x3d7b45e43dcb2254U, 0xbdd2ba21be25776cU,
  0x3d8334ec3cac2148U, 0xbdfaa86ebdbb614cU, 0xbd56ab1c3df5d86cU, 0xbdddc389bdbf9785U,
  0x3dacacd03cce8088U, 0xbb9c13403d156020U, 0x3e262520be09bc63U, 0xbdff0dd53da09bf8U,
  0x3e220bf0bdae51b4U, 0xbd820a6dbe2f60d6U, 0xbe11af62bd16dcecU, 0xbdceca8dbd47c2c2U,
  0x3dd48fc83db52e54U, 0x3de75abcbd3c0370U, 0xbcec3d283d5e56d4U, 0xbe29524e3db34cc0U,
  0x3d17774c3d3d0f14U, 0xbefec3263eb2d6adU, 0x3c8a58253e91f1f5U, 0xbe1080143e0d53a6U,
  0xbd917518befdf4cbU, 0xbf06bf4ebe179c3aU, 0xbd6af28f3bc81ab9U, 0xbc4d78bdbf41aa7eU,
  0x3ee483eebd40fa80U, 0x3d90dd3cbd9c55b3U, 0x3d06a66f3ef84827U, 0xbe95ac9dbd2f47fcU,
  0x3de81980be1132b2U, 0x3e30d98cbdfda5c5U, 0x3db9e2b7bd5ce2a8U, 0xbda5fa6e3ca7a9c1U,
  0xbd9a31323d97131eU, 0x3d073ce0be2c3fc7U, 0xbebd1b9dbee85a6eU, 0x3eb3fc423d9f0e64U,
  0xbd6920263e830ae0U, 0x3d4a75b83d4318f0U, 0xbdddea213d840ef4U, 0xbc93b4853f2509a1U,
  0x3d34f59cbe722e2cU, 0x3e17c64a3d33b6c8U, 0xbf4d5e863d64b3b0U, 0xbf9aba79be2dc5f8U,
  0xbd10ecd43c9a3648U, 0x3cf569b93b82f3e0U, 0xbebd9faabe84001dU, 0xbe0be28d3e28a166U,
  0x3f0a7d223ee91cb3U, 0x3ce823c83f05087eU, 0xbccfd712bf0d21b3U, 0x3f00b518bd94ee27U,
  0xbe2caf333dda2d2fU, 0x3da42d5c3ee8ec22U, 0xbc026a003da35c1cU, 0xbe179b493f0ca5ecU,
  0x3f25c5a6bf32062bU, 0x3e56f7783d3b9ba4U, 0xbebe282e3e91e25eU, 0xbf0bfdb93f01e000U,
  0x3f1453873f0a54c2U, 0x3c3e10bf3cb8578aU, 0x3e484c473dabe61cU, 0x3cb7fca0be08da5fU,
  0x3e78a5793da621b4U, 0x3f493f253e1e6d0aU, 0x3dc51f803cfe4278U, 0x3f051bb7bba406dbU,
  0xbeffe274bf996edaU, 0x3e286090bdfe7392U, 0x3eb6afdc3f18d5a3U, 0x3fa18b1dbe0d601aU,
  0x3f968c4ebc3a2639U, 0x3f015f5f3fab1a4aU, 0x3e803e3bbd067c50U, 0x3e2f20053ec180f4U,
  0xbdc773a6c00f5eaeU, 0xbd963ee8be087dcfU, 0xbd920a1fbb0ba840U, 0xbcb4f7283ee68ee2U,
  0x3d0fc8933edb1f6aU, 0x3f5b73d53ec086f5U, 0xbe0fab433e08b21aU, 0x3d9c67b63d869950U,
  0xbdcfae5e3f89f3e6U, 0xbf1cd1acbe163fcbU, 0xbbae7020bead3ce5U, 0x3e2732103d1b7e14U,
  0x3ec980ebbe1719afU, 0x3cc226e33d8ecb13U, 0x3e092e8abe7c60f0U, 0x3c440a28bdf055e3U,
  0x3ecac1e3bd0935d0U, 0x3fde1be13be31d20U, 0x3e2368123d9a554aU, 0x3edc42babdec0457U,
  0xbea337193e4c2217U, 0xbddd2671bdd2b7e6U, 0xbf968a6f3e105a4cU, 0x3dce7348bf642342U,
  0xbdb729423f8267b3U, 0xbf2bef313f471b56U, 0x3f316fbc3d437f0dU, 0xbde4ada0bfdc1365U,
  0x3dac1ec43dd91ce0U, 0xbda56d02bf070e5aU, 0xbf6969cd3f860946U, 0x3ee07988be03127dU,
  0x3de6c5a73e48f7c6U, 0x3ecc02393f3911a9U, 0xbf9c48b9bf60f6e3U, 0x3e0868823e9a2c81U,
  0x3e0d59813cbfc0e8U, 0xbdee513c3f9b0afdU, 0xbf230596bd952decU, 0xbfa89c07be17e592U,
  0x3cc552383e11e82cU, 0x3f324338bf5ac3dcU, 0xbeff1319be61e655U, 0xbc0992803e233a70U,
  0x3e623edb3f97f115U, 0xbf9145c83e205ed2U, 0xc025cf643f3a54c3U, 0xbf53ab7a3e52dc41U,
  0xbfbc3543bdff9376U, 0x3e011de43e116869U, 0x3f3209903f1a0419U, 0x3eb0ecf5bdf81d60U,
  0xbdbadba03dcaabe4U, 0x3d2f82f43d4fb89eU, 0x3f0ca99cbf951c1dU, 0xbfff50b3bf6aa8e3U,
  0xbd5963883d998fd6U, 0xbe1947ef3f4f3606U, 0x3df76747bfb5ea0cU, 0xbf15bad5bdb1c7abU,
  0x3e11936abf10da04U, 0xbdae8bc53dc90d18U, 0xbf63fa3dbd8a3b13U, 0xbd0973bcbf909953U,
  0xbcfc7670be07c6c0U, 0x3e8549553d0a6bf0U, 0xbeeff72c3e08d720U, 0x3ece1814bdf87e22U,
  0x3dd6aefcbc2895e0U, 0xbfac010a3db666f0U, 0xbf89dfa03f4c839dU, 0x3de4cf303da71e90U,
  0xbe5b542abf983d51U, 0x3d631ae03e92c7f3U, 0x3f160327bd4f0983U, 0x3f06a56cbe62f0c5U,
  0x3e89c252beb1e7d2U, 0x3da5165cbcad40ddU, 0x390694003e13351cU, 0xbda54edfbf981ce5U,
  0xbd963647bfb78320U, 0xbf9b2ae6be22d39cU, 0x3ed18808bfaf4cbeU, 0x3f5a41d4bfe813e8U,
  0xbf5caeadbdc1dec7U, 0xbc8d98d23cb59714U, 0xbe2cdcc33e302186U, 0x3d8532a6bf958567U,
  0x3e9f38e53d037718U, 0xbe9791eabe085959U, 0xbdb907213da7a688U, 0xbdd28f9e3ef897c7U,
  0x3e37c679bdd945c6U, 0xbdb29512bcae0bc8U, 0x3d3abcebbed2f0a2U, 0x3f65376cbe2946dfU,
  0x3f526ac13e9c028bU, 0x3f64b8ae3e267076U, 0x3fcb6d5abc4f6720U, 0x3e144fc53e8545beU,
  0xbe4cbc52bf09516aU, 0xbebee103bc30bf40U, 0x3d60e8943cead7c0U, 0x3c91ebe83de7a5c9U,
  0xbdde5ce9bd559f48U, 0x3eb4105bbe4e6e83U, 0xbe67123ebabf5a80U, 0x3e168202bd96a016U,
  0xbf23af273e98e92cU, 0x3d6e2f943e191efeU, 0x3d2965443e9dcb33U, 0x3dc2d3643d73a838U,
  0xbea022333c22c174U, 0xbd2db2f43f922180U, 0xbabdc600bea10f5bU, 0x3dbad3813ce2b6c8U,
  0xbf6f7e8a3dea16fcU, 0xbe13b7553d62e818U, 0x3d2141643e2dd664U, 0x3df955f63e0c6b9cU,
  0xbf80c772bd23420aU, 0xbcdbfd203de89564U, 0x3d3436743f1eb755U, 0x3dcbd058bc6890dbU,
  0xbe0701d53c36d2a8U, 0xbe00a097bf462b31U, 0xbf5b64d6bf1c8a21U, 0x3c657bb03ecbf433U,
  0x3dc3f92cbddaffcdU, 0x3b7e77003f53196cU, 0xbdb46f08becfcb78U, 0x3f0df272bd81f88bU,
  0xbef2a0743f48958aU, 0x3e16354e3ff9316cU, 0x3ed82d653ea6aa03U, 0x3de4e7763e3b98fdU,
  0xbed639e93e12435eU, 0xbd3ada583f433117U, 0x3ea5bdd5bdb6ad70U, 0x3da1a034be1a72dbU,
  0xbe0a43e33dc0644cU, 0xbe27002dbc6a566cU, 0xbd9a417ebcb46a47U, 0xbddd11653d9f9844U,
  0x3e017f5fbd06170eU, 0x3dc41d223dde7070U, 0x3db0075b3e0c78c4U, 0xbd96b8653d275db6U,
  0xbcb576783d568524U, 0x3e0048ad3b04bb75U, 0xbdf56477be075c80U, 0x3de2507b3d4e6f6cU,
  0xbdcffeb4be1044cdU, 0xbd4ea002bd246152U, 0x3d3a4775be0c7295U, 0x3e2c6cbabb79fbf4U,
  0xbdb7868d3e2cb704U, 0x3e1b5f183db14919U, 0x3dd69489be1dd41aU, 0xbcfd0c493c8e75e0U,
  0x3e0198783d02ba02U, 0x3e073c40bd8bbb8cU, 0x3dacba85bdda1261U, 0xbe2dc33bbdc01fc4U,
  0x3dcf6fecbad7fd4cU, 0xbdcd2a4c3e0e10e8U, 0xbdcaa0a8bbdb7bc0U, 0xbc980a333d608ee4U,
  0xbc9cb3c83df522c0U, 0x3e2c64a03e154ac0U, 0xbe309e013da10ee4U, 0x3d4e419c3d0910a8U,
  0x3dbd90b13d06be7cU, 0x3d2e3568bd467066U, 0xbe2ffa85bd3f1670U, 0xbe1a281bbd411600U,
  0xbe174455be2141beU, 0xbe038e0abda4a00bU, 0xbd104bc0bde71d36U, 0xbe10085abdc65d88U,
  0xbdedf62a3d27e377U, 0xbd7921ccbd6413e8U, 0x3d97535bbd582a1cU, 0xbd1165a63cfd1e09U,
  0x3db2c2c8be041e04U, 0x3c989c503d91179aU, 0x3bd92f0abe0133aaU, 0x3e2dcabe3cecfa20U,
  0x3deac258bcb42540U, 0xbe27cd123e189d62U, 0xbe0d7a97be22fddfU, 0xbd0cba003d2b62ecU,
  0xbdb8f9fdbd5f69beU, 0x3c849c183dbea1fcU, 0x3d97efbcbe0d6e19U, 0xbc0776c03cfc8830U,
  0x3e110888be304edfU, 0x3df462a43dee03fcU, 0xbda20d16bddf9fb3U, 0x3d904c1e3d6c5a28U,
  0x3d9f8c78bdd0d3e6U, 0x3c8b42603cd74b40U, 0x3e0c503c3e198c36U, 0x3d3994803e1ee3baU,
  0x3df9244cbcee8b98U, 0xbd824e5ebd5cb644U, 0xbd8c41ac3e2f154cU, 0x3d8afa88bd287a50U,
  0x3d25fbd8bda59a11U, 0xbde02b2cbdb86c06U, 0xbe088d9dbe1b23b8U, 0x3deabca4bd9149b1U,
  0xbd9e3ea23d8c2852U, 0xbddc3b98bcc2c5d8U, 0xbbfe4280bc8c8750U, 0x3d584f5c3e12202eU,
  0x3e115246bc70be60U, 0x3d65793cbe046c24U, 0xbd979db93e2e26baU, 0x3e037edcbd36a87cU,
  0xbc2b7620bdc65a14U, 0xbb709b403cc11108U, 0x3db2c360be29113eU, 0x3da1c200bd3034d8U,
  0x3d82ebb43dcc9a20U, 0xbd83f8a53da00a2cU, 0x3ded40e43cd79018U, 0x3d466f483e0ef7baU,
  0x3d2d387cbe1932d1U, 0xbc27d120be1d8687U, 0xbcf9e8c03c994b80U, 0x3d9909f43d98ef6eU,
  0xbe2fcaba3da5db58U, 0x3e199fdebe2c0bb7U, 0xbe0226a03dcc35d8U, 0xbda23bfbbde65dc6U,
  0xbe1c9abb3d777510U, 0xbe085e863df04f84U, 0xbded0a773e15d9c6U, 0xbdeea7dc3ad91600U,
  0x3dbaf140bc67dc80U, 0x3f4d403fbee6158fU, 0xbe4f9e6dbe425100U, 0xbdff6443be2daa16U,
  0x3cebb6bb3f630818U, 0xbf803a483d99fb35U, 0xbf9140e93ef494cfU, 0xbdecc2a63e38c37eU,
  0xbea549a13e0fbe8eU, 0xbca97f123ddd409fU, 0x3f0da4033ed5d941U, 0x3e6bd20e3e2fe3b0U,
  0x3c22aa80be28d936U, 0xbe1de01e3e069d7dU, 0x3ee5b0c9be01aeffU, 0xbebec22fbdee68baU,
  0x3dc920263e1d3abaU, 0xbe159a703eabf777U, 0x3eb2686dbf5f6880U, 0xbeb65a8dbd7e3c3cU,
  0x3d8a659e3ca23504U, 0x3ca32d283dcc05ecU, 0x3b73b864bd9aac00U, 0xbe26df84bed3cbe5U,
  0xbd86c4d9bc9e74a4U, 0x3ed4b7b4be2e57b3U, 0xbe337596bd226880U, 0x3e117c073c8fee88U,
  0xbd8a6201bd2a395cU, 0xbe52645e3e1a76aeU, 0x3bb4fa7e3f195cb7U, 0xbc0f5c103dd05b10U,
  0xbf16686ebe93682bU, 0xbce1a570beec7489U, 0x3f05bb5d3e59cd09U, 0x3e34965bbee02c11U,
  0xbee7d0dabeee8cdfU, 0x3e1bf2f83e813cd6U, 0xbd40e5b8be261188U, 0x3d8c5576beb10e93U,
  0xbe86bdd8be7c22ffU, 0xbca1ba7d3d0c65c8U, 0x3ef2d350bf80835cU, 0x3e039550bfa3d250U,
  0xbf07dd14be2eeadeU, 0x3edf09ec3e027d9fU, 0xbdffdd073cfb00d8U, 0xbd5ecee6bf846718U,
  0x3e681a0b3db2be40U, 0xbeab7fa53e1a4de8U, 0x3d9089b6be10b82dU, 0x3e0af7863dda2de0U,
  0xbdbac319bdd9e8ebU, 0x3e2e5d62bcf9a150U, 0xbd57e7dcbe016972U, 0xbdd006113d878302U,
  0xbde6614ebe1135cbU, 0x3d845e403e233a4cU, 0x3dcdfb403df01e6cU, 0xbdc0d7d83def9434U,
  0x3dd529dc3ce82740U, 0xbb86e6003d2d6174U, 0xbd282d803b65f240U, 0x3dd9b6e0bd6c07acU,
  0xbe1de41c3c031620U, 0xbde747523d1c2cb8U, 0xbe179bcb3e16811cU, 0x3df3d5843de90d5cU,
  0xbb16e640be263fbfU, 0xbe01c74dbb475040U, 0xbe14d51a3d4f6164U, 0x3d9ee524bd30ae14U,
  0xbdb36c79bdf01922U, 0x3e05c346bde6fe24U, 0x3dddd8303e258c08U, 0xbd5270523e022ea8U,
  0xbd6d52323d0f06e8U, 0xbc7bfd303d8d727eU, 0x3ca58710be22a95fU, 0x3e2c9be0bdbfb7bdU,
  0x3cd07890be13c854U, 0x3d87dcd0be0206eeU, 0x3e0dd916bdfc64bfU, 0xbd5c0b9e3e00c526U,
  0xbe2578d7be1e9699U, 0xbdd934913de87d14U, 0x3e17f70abd9e4683U, 0x3c0a6c303d227aa4U,
  0x3e17ccc43e0dfe92U, 0x3dcd59583b981ca0U, 0xbe0b0214bc4c9830U, 0xbd93cde8bd163f64U,
  0x3c7055f0bd5514d2U, 0x3d0a9b7c3e0abc20U, 0xbdaec3cdbdcc6dceU, 0x3cd3bbf03dd24950U,
  0xbdbef602be285decU, 0xbe1b133b3d67175cU, 0xbdacf94f3c9797f8U, 0xbcb85e503e053e7aU,
  0x3e2930683cb15128U, 0x3dedbfc53eab9e4fU, 0xbe6a4a31be88a794U, 0x3c4de170bdcb0fa6U,
  0xbd7368933d11480aU, 0x3fba723ebd9a8e46U, 0x3f6b9e703e288b9bU, 0x3f21028b3e7c8587U,
  0x3f9e8228be24f29cU, 0x3e8ace443ec5a9adU, 0xbdcc254cbf82b6a0U, 0xbeae4a5cbe1f2d68U,
  0x3e0e662ebe1809ffU, 0xbe2b2c103f02aec9U, 0xbe042c433f06e703U, 0x3f0634993ed10faaU,
  0xbe8dbca8bd18ed3cU, 0x3d28c544be88a7c8U, 0xbf1da7323fa3a288U, 0xbc40fb3e3df1751cU,
  0x3e0ef67cbe1c4d31U, 0x3e2f09343d515030U, 0xbe73e54c3c425a70U, 0x3dd4fe5e3f36aff3U,
  0xbda683a2beb48386U, 0xbd9341473d8a6442U, 0xbea1d0adbd8de70fU, 0x3f3a04e93dfcc9a0U,
  0x3c73b6e0be1d8444U, 0x3e29ba933e105426U, 0xbfe1a240bdc6c5aaU, 0xbd3fa4fcbdcb962aU,
  0xbe3d9cc33f107099U, 0xbd6abb823d4902e0U, 0xbdc56e533ef909f2U, 0xbdeb23b43ea2bd22U,
  0x3ef70b573cb71358U, 0x3d813f2cbfa24a43U, 0x3e1619aabd0c53f4U, 0xbb99e2203d6e76b8U,
  0xbe3794fd3f3f20ceU, 0x3e127cf4be16b5b6U, 0xbd0756753f89a83cU, 0xbf9bb34e3f9d7c88U,
  0xbcda89c03c197a17U, 0x3e3cc0573eb36e97U, 0x3e43ed94bd815c71U, 0xbc8b84b83fab98f8U,
  0xbe737ce9bd049470U, 0xbd9c81fb3c2226b0U, 0x3c8e9cf03bd44fc0U, 0x3cf3d56e3d9363f4U,
  0xbae58b80bdd7332dU, 0x3d95bae4bc9172c0U, 0xbe06a1ca3ce6077cU, 0xbe3591863d2df254U,
  0xbd09cc19bdb74fa8U, 0xbd9d2b763c139225U, 0xbde186f2bd51ee34U, 0xbcdf81f9bda81d6cU,
  0x3cdd674d3d518f5cU, 0x3c0b517d3dab4d18U, 0x3dd13f08be181e32U, 0xbe10576cbe1db908U,
  0x3dac99ddbddd49cdU, 0xbd0bb3383cd21868U, 0xbe306c8b3ca2f3d8U, 0xbd915a203d7dc365U,
  0xbde83093be077079U, 0xbe28cc72be1e8d79U, 0xbc7210f03db515f0U, 0xbdbc3203bda5e17dU,
  0xbd246604bd00acecU, 0x3dd851d8be229058U, 0x3d3cbe60be0f3738U, 0x3d8d7f21bdcdd5e6U,
  0x3c4c3df0be00f7d0U, 0x3d6d1076bd989eb1U, 0xbde8910a3e0e5f38U, 0xbe0860523e07c7eeU,
  0x3dbea7c43d2d1dd6U, 0x3e0d61d03b260040U, 0xbda9eb063e0fab97U, 0x3e1999423e263f7dU,
  0xbda94488bdb74180U, 0xbdc85e4dbdb1fd9fU, 0xbd73f018be1be5f8U, 0x3ce14e283e1e5c2dU,
  0xbd0466acbc8329c8U, 0xbe22e06abd86213bU, 0xbd426b9b3da18046U, 0xbe02519abd5c6fbaU,
  0xbcc5f2e43e13735dU, 0xbdd1e7803df68403U, 0x3d9b24653c550fa3U, 0x3ce901163ddc7634U,
  0x3de26df0bd8e1783U, 0xbd88d0b0bd949999U, 0x3e114237bcb9d6f0U, 0xbddea523bd995b34U,
  0xbe18cadf3dd035e4U, 0x3efacccdbe2a7b2cU, 0xbe23dfb73d382eaeU, 0x3dd239383ddfcb48U,
  0xbdf613133f15778cU, 0xbef1dd50bcba9d78U, 0xbfbbc1973f24b4d3U, 0xbe8104863e1329d7U,
  0xbeb8b47f3bb5eb00U, 0x3dd6944b3c1bcf03U, 0x3edba05c3ec12ac7U, 0x3cf5e9d8bc9ffd08U,
  0xbcf77238be1fa16fU, 0x3d9007c43dee6234U, 0x3e9dbc12beebc1c5U, 0xbf61fb56beb4e2f1U,
  0xbe81fef43d859b54U, 0x3b4089403e8d4e5dU, 0xbe740b66bf5fbeccU, 0xbe65a2973d3d4250U,
  0x3df7cd9cbe49cff3U, 0x3cbea6b0bd47d2d2U, 0xbefc3314bdb29c2cU, 0x3e16fa10be40c873U,
  0xbdc8568bbedf3465U, 0x3eb725ed3e20cc44U, 0xbf1e79b33e08c3a4U, 0xbe5cc69b3ba374a0U,
  0x3ba9ab00bd80698bU, 0xbecf3f3abd89ce6fU, 0xbe7b99363f29e139U, 0x3de22f48bd8f5e7bU,
  0x3c486be5bd4db5d1U, 0xbd7421283cc045ccU, 0x3efd0422be5ab9c3U, 0x3ebf71bebeda982fU,
  0xbf1c92c7be87915fU, 0xbcc8e4683ddc11bcU, 0xbc5eebd03d5dcc44U, 0xbd635e16bedf2f2bU,
  0xbe4bc5b1bf3fcdaeU, 0xbee0247fbd41d324U, 0xbdc7315cbf1c72a1U, 0x40626cbdbeb6738bU,
  0xbee2d47ebdf91c87U, 0x3e0c83c63ea6bad8U, 0xbd140888bd8c2e83U, 0xbd27f834bf1ebb08U,
  0x3e7ec8b9bd89b6dbU, 0xbe47a650bd9166a9U, 0xbbb942003dd0845cU, 0xbee4c819befde748U,
  0xbee669213ea3d4d5U, 0x3cf58058baf95400U, 0xc0158493bea16180U, 0x3e3d4b22be1fb220U,
  0xbf487ca93e232996U, 0xbf6d16c4bfaf255eU, 0x3ed4c7ce3dbe1024U, 0xbe357112be1c83fdU,
  0x3e150ff93f0ad668U, 0xbfcc09a03e1c3f94U, 0xbbab97e03cf533b0U, 0xbd009a4cbeb76776U,
  0xbe2796ccbe4ba464U, 0xbf3e67b0bef53015U, 0xbec37812be2d5b15U, 0xbd1c27b0be9f858aU,
  0xc009bc86be296169U, 0x3eaf3a82bbd28e20U, 0xbd8688afbe9919a2U, 0x3c0f1460bd0a4550U,
  0xc0668845bdce9bf6U, 0xbe20b5f13e82527fU, 0x3d93eb22bf75edd5U, 0x3e57d2ecbde61f92U,
  0xbed5c1273d058bd4U, 0xc025139b3c5bcae0U, 0xbdd47942bcf22060U, 0xbf8e14da3d68dc2cU,
  0xbf4a6751be09c542U, 0x3e07c2723d843eecU, 0x3f3f09133edf1339U, 0xbd5780323f539133U,
  0xbde5077ebfedb5bdU, 0x3ed9883abe66fdaeU, 0xbd92ee93bc989031U, 0xbe0199403e6cd802U,
  0x3e19400ebde1f27cU, 0xbaea4800be7a52daU, 0x3f43e23dbdc053a3U, 0xc0b56b2d3d82ccdaU,
  0xbf4303373e75bdf8U, 0xbf9b4c503c8e724aU, 0x3f1da6923f1a9e77U, 0xbe0697b63dbd8dd7U,
  0xbf0724ef3bc253a0U, 0x3d212a503ee650e7U, 0x3f152cd5bdbcabf2U, 0x3f37c1c63dc5ab04U,
  0xbd45e800be049833U, 0xbdab7bf8bcaf056aU, 0x3dfde888bc9e92b7U, 0xbda3a18abd8f102cU,
  0xbc8ce876bb66acadU, 0xbe29b39b3dfe7558U, 0xbda85ababdbdc032U, 0xbdcecc34bdb48d01U,
  0x3d17a490bda55168U, 0x3e0592adbe03f923U, 0xbd8799b8bc4d7fbbU, 0x3e266c6ebdfa45e1U,
  0x3e294fc03daf56d4U, 0x3c3e88703d9bed50U, 0x3dd8e1763d0ef4f1U, 0xbd6578fb3daa7fa7U,
  0x3cf126edbe2a118eU, 0x3e052eb83d7f77e6U, 0xbe3157dd3dc2efaaU, 0xbe22e666bc43c220U,
  0x3e08caccbe35930aU, 0x3db8f9403db7c2d8U, 0xbd8e2d173e23c72cU, 0x3d8ebda43df5faecU,
  0xbdbc3558be136ca5U, 0xbdad3154bdec0c7bU, 0xbd2388893e307facU, 0x3e1fd641bd27d774U,
  0x3de34d2cbda4c3e0U, 0xbd4c5dc9be0b2fcbU, 0x3dbaf445bd050c80U, 0xbde97504bcaf5ad8U,
  0xbdab76903cdb4757U, 0x3e03de4a3e06b27eU, 0x3d94e1533da2f5e3U, 0x3dae76eb3d300e4eU,
  0xbcb059133dfa483eU, 0xbdc7dcb73dadfea1U, 0xbe123e313d8ce018U, 0xbbcdc8a0be3345e5U,
  0xbe3297f2bccebce6U, 0xbe1aa9333db6d9dcU, 0x3d7844afbc0c9f9dU, 0xbd518bdb3df04fd6U,
  0xbd123047bd281f7eU, 0xbd3b6537bc390e3dU, 0xbb7dca013dbcc26cU, 0xbd5db7f43e2b8eb0U,
  0x3c7cd0863e033024U, 0xbe3618923d3ecf58U, 0x3a93c980bd559fa4U, 0xbf0ed8023f0f8b70U,
  0x3e12287b3b8c604bU, 0x3e15d2063dd259e0U, 0xbe84b672bf402d16U, 0x3e3fe277be208c23U,
  0x3ca3fe853de4a605U, 0x3e45f9aebf474c28U, 0x3f44da6b3bc2a240U, 0x3d6c07a43e2579e1U,
  0xbe293ef03d608b39U, 0xbecfca113d62515cU, 0xbe281d723d8c654aU, 0x3d6da398bd1003deU,
  0x3d48576a3e0ff96fU, 0x3eddcb863b415dc5U, 0xbe53cababda341ffU, 0x3e0dfa3ebed44828U,
  0xbf325174bd614f86U, 0x3eb0f5d7bdbd33a1U, 0x3dbb1a1cbd07508dU, 0x3c178280bda89bb4U,
  0xbf13d3073d8a4e2bU, 0xbe1fbe223f8b872cU, 0x3d8b4858be5b2c0cU, 0xbc4fc2633db735a0U,
  0xbf21a8f83df0f668U, 0xbf94db79bd7643aaU, 0x3cd20ef83cd23fe8U, 0xbdc7064a3c9a2870U,
  0xbf906e11be795b99U, 0xbdbc18183cfd3948U, 0x3f214dc93f27d7efU, 0x3dea61083f270923U,
  0x3d2f3a48bf024c19U, 0x3e0d0427bec08eafU, 0xbe88f0d2bdfb4518U, 0xbd3e8cbc3f110576U,
  0x3e0a62b4bd2c0600U, 0x3df9e7d43f1f4d34U, 0x3e6f828dbea83395U, 0x3e0a6e62bd992d1cU,
  0xbf61192f3f136fe1U, 0xbeab57f83f9285c1U, 0x3eab6ff23f2c4d06U, 0xbca14ff33e6d9311U,
  0xbe598cdfbe31118bU, 0xbdaf63b73edb249fU, 0x3e918b8e3ce72968U, 0x3ef402043d8c0ed0U,
  0x3cd66c683cad6358U, 0x3f5a0c28bea754f8U, 0xbc943956be53e102U, 0xbddb7718bdd3783eU,
  0x3e3d47553f3a4383U, 0x3e9256b53cbe3271U, 0xbde5382f3ebb1c8bU, 0xbf34010e3e998730U,
  0xbf5c20053d974282U, 0x3e228e393f068e5dU, 0x3ee3592c3ea45167U, 0x3e564c433dcc09f0U,
  0x3e0f54143e2164e6U, 0x3d5bb0f0bddd5c19U, 0x3ebd7416be834380U, 0x3d54ddf23d4408f9U,
  0x3e4c5ed9bd96e079U, 0x3de9aec43cf08e96U, 0x3ed39d303e16307dU, 0xbe9967763e09ad5cU,
  0xbdc0cfcfbe401974U, 0x3d2ed0bcbd6c6b24U, 0xbcabf5a0bdd9fdf6U, 0xbe2d5352beeaaae9U,
  0x3d8ad1f63db0fb9cU, 0x3e52afdcbe1a8454U, 0x3f1a48bbbd2973a4U, 0x3fb3a16e3e0e2288U,
  0x3e1a0a4ebd370f04U, 0xbe94c0823d3a086cU, 0x3e98f4383f141d28U, 0x3d56b634bdcf0988U,
  0xbe8a5e40bee194d2U, 0x3db9cf543dd18f24U, 0x3ee2ab9e3f2058aeU, 0x3daaa3013ef8dbfbU,
  0x3ecb76403e71edbbU, 0xbe243f41be3047b5U, 0xbe0d1a47bd881eb2U, 0xbe1b0b28bf24c69dU,
  0xbe8b6a383f223333U, 0xbf494f5cbd1c4fecU, 0x3eb8b9cebf300797U, 0x3e7e926abf331bdaU,
  0xbe95951fbea578d6U, 0x3e2532963d94a1f2U, 0xbe195738be2ae7f3U, 0x3cf3a1d83dd07c96U,
  0xbe31189bbe1c257bU, 0xbe664abdbda5382fU, 0x3d161c303db342a8U, 0x3e2542c83e42236dU,
  0x3e70ec043ea2319bU, 0xbe2d9bf2bdcddbe6U, 0x3edeee133f4c9655U, 0xbf09e171be10b71fU,
  0xbe30ea7cbe93362aU, 0xbe918edabe5987cbU, 0xbf1829c13e22f664U, 0x3e3745da3e4b3ae5U,
  0x3e30c0d33f4f227eU, 0x3f1d6ff3bdd403faU, 0xbda2b1d83e154b90U, 0xbaf5f0803d82d12fU,
  0x3e859b333e140936U, 0xbea9c5103d12191cU, 0x3eeff64b3dbb253cU, 0x3e11fe583ec8d09dU,
  0x3f622b1a3dda9768U, 0xbbda25bbbe17c8eaU, 0x3d9b60c83ef2cdacU, 0x3d24b1483bfa3560U,
  0x3e7cd04f3d59558eU, 0xbdf938e1bf0878d1U, 0xbdbf9f033f00645fU, 0xbe57e416bd9fa7cfU,
  0x3f2393c8be0c818bU, 0xbef1ebbb3bef53e0U, 0xbe075fb2bc92f058U, 0x3c92dd733dff56f8U,
  0x3e979ed63e103752U, 0xbd863d933cb558b0U, 0x3e90d4efbf190930U, 0x3c00ba603eb2f959U,
  0xbcf69df33d66d4eeU, 0x3cc013c03f5f71fbU, 0x3f736ef73e7c5628U, 0xbd6303123ee0a404U,
  0x3d8286f0babdbf00U, 0x3bf82880be107245U, 0xbcc7ab733e776125U, 0xbd01da343e2c6814U,
  0x3f6b078abe14509aU, 0xbecd6d33bfa9c9ecU, 0xbd739d153c409047U, 0xbcc3f123be177d4dU,
  0x3eaa9f8b3db05db0U, 0x3e1baa6ebeb985b6U, 0xbc4ee314be2a62b0U, 0x3ddb8d0a3e026f7cU,
  0xbd751ee63e0f6d16U, 0x3df6b480be23be21U, 0x3d68f4f0bde7183aU, 0xbe090806bda97232U,
  0x3e255c9abc46f7d0U, 0xbdeee7dc3d9b1268U, 0xbdf1c0b5be05305fU, 0xbd7852f03e2f8802U,
  0x3e2c75cebdc709e7U, 0xbd29a4f8bde04048U, 0x3dbb78a4bd0d6cf8U, 0xbdb7453bbe0e5e36U,
  0x3da84ea0bd4fcad4U, 0xbd182cdcbd825a9fU, 0x3a49fb003c2ce310U, 0xbe0b26dabce20da0U,
  0x3c99eb603dd2cf3cU, 0x3db34d583e165bf8U, 0x3d1e3830be08ae83U, 0xbdb0b0e5bc5b2fb0U,
  0xbcc3ee88bddfe225U, 0x3d18f608bdaa0a66U, 0xbd4b1de63dbbb2b0U, 0xbd38f6a0be12f253U,
  0x3d24b5c8bd88cc2fU, 0xbb309ac0bc7927a0U, 0xbde9083f3dc0d190U, 0x3bd3a9203dc1e794U,
  0xbd99465bbd8c7247U, 0xbc3b07f0bdfebef0U, 0xbd1ac0b83d88b82eU, 0xbc4cf4b03dac0b90U,
  0x3dc6b9b03e013552U, 0xbe1c2dbdbcff00a8U, 0xbcf17f50bdd33375U, 0x3d1985883d8eca70U,
  0x3c554c50be191e77U, 0xbe304bdabd622ab0U, 0xbe1878f73c815160U, 0x3db036b83e1060c0U,
  0xbe11388e3dc09060U, 0xbe1aef7c3e153b72U, 0xbd7d2b863e0e36f4U, 0xbe1922513dcd9d74U,
  0xbc9580e0bdff657aU, 0xbda32dccbd1fea10U, 0xbd9d6f013c81f060U, 0xbc9a73583dc01274U,
  0x3d11d3943dda055cU, 0x3d07ecdcbe0274aeU, 0x3d4b4dc0bc9bbb50U, 0x3f159cf93de9cbbcU,
  0xbe26c020bec3334dU, 0x3e21b68e3d1bb0c8U, 0x3f27f0c73f07e535U, 0xc000690cbd59aca9U,
  0xc0306c383ea575e2U, 0xbe806d2a3ef01acbU, 0xbfb1dd733ca27e68U, 0x3dbf96523a9c1c5fU,
  0x3e30a3173e2c1a9fU, 0x3f254311bd8a112eU, 0xbd171458be1cdca8U, 0xbde3918c3e177a29U,
  0x3e41c9d8be8c24ebU, 0xbf437aebbf39884dU, 0x3d5406a03e06985eU, 0x3e09bc903f19deffU,
  0x3f352badc0280378U, 0xbef2802f3de498f8U, 0x3d0660643e4b5f58U, 0x3ce72a60be207120U,
  0x3ebb1807be09cfb8U, 0xbe15fe35bf653fe3U, 0x3db0dfec3debc3e7U, 0xbc342e883cd92550U,
  0xbe7bb57abdb02895U, 0x3d3d4ffdbd5db210U, 0xbd99cb0dbca6e210U, 0xbef5b7d63d9ae128U,
  0x3dcda6763f24c7a1U, 0xbe1656203e158d3eU, 0xbf161480bf9dc5eaU, 0xbd1ee438bec3a0aeU,
  0x3ec4a3763ed3810bU, 0xba9cdb72bf7ef33bU, 0xc007dff9bf259bafU, 0x3ce692783efb1495U,
  0xbcb6d2703d80e47aU, 0xbdee2367bd9b4dd2U, 0xbf6931e8c013d937U, 0x3ea20045bd20f4f8U,
  0x3f0b0669bfb50bb3U, 0x404a1016c00225dbU, 0xbf59fa08bf35ea1fU, 0x3e81d89c3d880bc8U,
  0xbd819ec13e08a896U, 0xbd717578bfc88ef1U, 0x3e240ea6bdc71fd0U, 0xbf0cae3dbe237c0aU,
  0x3e02a5c83d358bdcU, 0x3e577cf1be3836a2U, 0xbebccd5f3f2414c1U, 0x3e08a62cbc8aad28U,
  0xbf59673e3e5a1e81U, 0xbf2fde27be2fc3e4U, 0xbf8d46d73f372f68U, 0x3de67b14bd99a227U,
  0x3fb24988be0a2626U, 0xbedfcf1cbe66b846U, 0x3ea6a9e93f2bbbc8U, 0xbf1c1e633e22feceU,
  0x3d26f7a43e0bfc90U, 0x3e01e9603d443f31U, 0xbd3a3fbb3e8bd01eU, 0xbfe3fca2bfa1bfd0U,
  0xbf31cb74bd24cb78U, 0xbca96c203ccbeffdU, 0xbf5fd3c1bf4de46bU, 0x3eec93303dadece4U,
  0xbde4941abe62e7d0U, 0x3d462078bdba8cddU, 0xbf8411a7bdfdb2aaU, 0xbdf032ea3e4ddfddU,
  0x3d7d3940bf1c6210U, 0x3e8ca4e03db22158U, 0xbfe78de63bf18920U, 0xbfe541fdba07fa00U,
  0xbd694b8abe2441feU, 0xbfc9cd483d0f74ccU, 0xbfd3281c3e47bb5dU, 0xbc265170be2e233eU,
  0x3c95022a3ebff5a9U, 0x3d71ea783c922faeU, 0x3e3b52ffbf146b5eU, 0x3f02d87cc0235f2dU,
  0xc06985b3bf78712cU, 0x3dd6c9343f08ac46U, 0x3df590c83cdda970U, 0xbd9cc11b3edb58f8U,
  0x3ee45895bfa35a78U, 0xbede249c3d8b8b4aU, 0xbb813e763f6beab1U, 0xbf58d8a8bea17157U,
  0xbd89bb993e944039U, 0x3e8079693b53be91U, 0xbf30c98c3d9599caU, 0x3d34f6a4bf59a645U,
  0x3f1fbc5cbc7e71c0U, 0x3eb2b0073e163912U, 0xbdfa52ea3e17e6e0U, 0xbeebea153ecff542U,
  0x3d8c26f53db50d61U, 0xbd4055b43e05c808U, 0xbe1ff470be973ec5U, 0xbe75ad61bd68f4adU,
  0x3d6c5493bd8d6081U, 0xbcac24dfbf3d56bbU, 0x3e95dd383d55253cU, 0x3e8d84ef3d6f2632U,
  0x3e1ecdcd3f362a87U, 0x3e0a8a60bc93ac18U, 0x3c4413003d50b98cU, 0xbe1d6c78bdb94704U,
  0x3d856e693e3429aeU, 0x3ca63ec5bdeb4c22U, 0xbde8a0323e183b14U, 0x3ddbb494be53ca22U,
  0x3c11d6e13e2c8269U, 0x3ec37029be0e9be0U, 0xbd6c07b83c523db0U, 0xbcc82af8bda1817bU,
  0xbee387013deb881fU, 0xbd3ce4d33e47889aU, 0x3e09e4dcbd1b8a9fU, 0xbcd2683e3e0cef42U,
  0xbea933913d0e85f4U, 0xbf63a379bdf82834U, 0x3d215f88bdb85665U, 0xbe4d62bbbd58acc0U,
  0xbf09aa1fbe6ace6eU, 0xbdd5e957bd7e5616U, 0x3f2302a33cf36c91U, 0xbe29e6753f4ba8ecU,
  0x3de13049bf220281U, 0x3ecaa65a3eab8eaeU, 0x3f2199663e8fc9ccU, 0x3da29c8c3e1e3de3U,
  0xbd04e4b8be172d8aU, 0x3e006b923e50e201U, 0x3eaa22bcbde53fc2U, 0xbe484323bd6feac8U,
  0xbe08e4f73ed04aecU, 0xbf270ba73e7eb77dU, 0x3f0238193f034493U, 0xbe06dc703e7f7f68U,
  0x3e8a42823dba5f64U, 0x3c8aad683e3b4a5fU, 0x3e88cf273e2f11c6U, 0x3f14fe8d3e2d4bd4U,
  0xbd2d83383e25fd8cU, 0xbd0dfcf4be2cba9bU, 0xbd99b6dabe264161U, 0x3d9f27c03e01b2f8U,
  0xbc35bbf03da3738cU, 0x3cfb0580be06a98cU, 0xbe008a37be192d59U, 0x3db9f938be2af7aeU,
  0xbdff6bd73da40c30U, 0x3e0cc6403e2b5e10U, 0x3dd27ab0be053d07U, 0x3c9932083da1e644U,
  0x3d1e9f3c3d212560U, 0x3e12c1c0bdcdde7fU, 0xbd310c70be066c44U, 0xbdf3504abe25b3dfU,
  0x3e01314e3d059374U, 0x3b5695c0bd9ebc88U, 0xbb31d800bda96403U, 0x3db3eb583e2a5cd8U,
  0xbbe7aea03e157374U, 0x3d94f94abb934160U, 0x3d9083de3e2e145cU, 0xbdd29ee4bb99f960U,
  0xbdcb6630be13787eU, 0x3e005c30be087f45U, 0x3d848dee3dec26e0U, 0x3d795b4c3dfde140U,
  0xbd8335ba3dbc2af8U, 0x3e088de8be11baf5U, 0xbdfc51bdbd2429b4U, 0xbdbb194fbe271e59U,
  0x3e2701003e1bd7c6U, 0x3d99fccebdd9480eU, 0x3e246a0a3e052840U, 0xbdd0b960bda57256U,
  0xbc2a4a00bbea75c0U, 0xbe257fe6bdbad1e8U, 0x3bc9b3803e14d452U, 0x3d3d7ca4be149da2U,
  0x3e1a3a323d98fdbeU, 0x3dae5c34bdb1adc6U, 0x3d31355cbdd22e4fU, 0x3df163b43cf03f20U,
  0x3d9ed198bdb28736U, 0xbe3087ffbe1068aaU, 0xbd9bf2943dbd9d90U, 0x3dc8ae84bd930df3U,
  0xbd2a7a88bda70f3cU, 0xbd8cd44abbb1ca20U, 0xbdf7908abbe33660U, 0x3f1188c2bdaa8e8aU,
  0x3e67b79bbf01ddd3U, 0xbe0af9a8be16f550U, 0x3f35e3a13f554bf7U, 0x3f8adc6b3e2b4a64U,
  0x3f1aa527bb4b3e6dU, 0x3e53f0b83fbbe067U, 0x3ec56d3fbd50a258U, 0x3ecc37a43f14ff3dU,
  0x3d0e78ddbfcb352cU, 0x3f18b760bd0ab4b0U, 0x3d99bf883df8c254U, 0xbe229e7d3e941fc6U,
  0x3e122344be127351U, 0x3fbced963f3d35cbU, 0x3ec98f7dbe092068U, 0x3c953c60bdf65ce3U,
  0x3f02b1013efa8d9bU, 0xbe70002e3d297434U, 0xbe18a8fd3e9c4d71U, 0xbe0bd2663c6f93c0U,
  0x3f97c4d2be277b5eU, 0x3e185ad6beaaf3e1U, 0xbe3151563eef1e45U, 0x3d878e94bdbd6833U,
  0x3fb640c73c424670U, 0x40057308bddc5249U, 0xbd87d94e3ccc4a38U, 0x3f863efb3dca3cbcU,
  0x3f5bf69f3df76d5fU, 0x3c374330bdf3a05bU, 0xbf418ceebe9d9f55U, 0xbe1c8854bf656308U,
  0x3e1583333f9b1690U, 0xbf3743bc3f88e0b1U, 0x3f9367773f246d2eU, 0xbd9afda0bf933736U,
  0x3e05fe603d5102dcU, 0x3e202a9cbeecf47aU, 0xbf8ae3933f12267eU, 0x3f6f5d983e1b4d98U,
  0xbd6ed3f3be93e3f4U, 0xbf863e363d180006U, 0xbea8bc70bf812eefU, 0x3e0b813a3d89d1f3U,
  0x3f5e88ee3e26b298U, 0xbe2005703f63f313U, 0xbf1e8d703cd38ae8U, 0xbf92af89be2c8644U,
  0xbc5a8b80bdbc9debU, 0x3f127cf6be462f56U, 0xbf20cbcebfdbe1bdU, 0xbe0d9f4cbdd3995eU,
  0x3e5401833e02fd6cU, 0x401578f73dc62e42U, 0x40012c193dbf7feaU, 0x3ea1fa683fac10b2U,
  0x3f04ad703e0f1574U, 0x3ebe738e3f14646fU, 0xbee07b00c011a997U, 0xbe8ce7513e267740U,
  0xbd0cdf983dde5064U, 0xbd8fe12a3d91e02fU, 0xbeaa67e2bdc316bdU, 0x3f6e92093eb50931U,
  0xbee60afc3cf1c320U, 0xbda3d0e9bd31cfb8U, 0xbf40321e3fe1b13eU, 0xbf38ae87bd31b37cU,
  0xbdfbbc433de0a23fU, 0x3ddd56f4bcf23238U, 0x3dd42abebc9d8aedU, 0x3d0807273eb11c3fU,
  0xbd3679a0bf212262U, 0xbe253be53df00e40U, 0xbd26d2f83dd064acU, 0x3ff2f4933dcc2724U,
  0x3e0d15803de92484U, 0x3ef59adbbe2ff1eaU, 0xbef2a6c73d8ca9deU, 0xbb975040bd7b94c0U,
  0xbf53fcdf3f0eb9b2U, 0x3e102180be8212d2U, 0xbeba8ce33fa544f3U, 0xbf1bfc753f879b38U,
  0x3fae032abdc6ee60U, 0x3d8b3098c0166f65U, 0x3cd0e2903deec784U, 0x3db83080bf6cd3bdU,
  0xbf1708b03f9a7ef5U, 0x3e6b48303de4f314U, 0xbdcb68213eee6947U, 0x3e53a1e83ff2b9ecU,
  0xbf9a2aa3bf286a72U, 0x3d9fa2573ea2dcf4U, 0x3d1ca49c3da63c84U, 0x3e0d802c3fedd4cbU,
  0xbef02d60be2c85a6U, 0xbf808d093dffd77cU, 0x3d2a6c94bd888818U, 0xbd7952c8bdec20c3U,
  0x3c26a11d3b794481U, 0x3da9d1a83e139de6U, 0x3dce914ebdd566c1U, 0x3b171a0abdf97862U,
  0x3e03a886bdae380eU, 0xbe0a809c3d57baa0U, 0x3df84ab6bdf4dc3dU, 0x3e05e9c13be32e4dU,
  0xbdcb75c5bdf9881eU, 0xbe12163abd9f078dU, 0x3c9e04203dd82c48U, 0xbdf0fe54bdee4f7dU,
  0xbe1849b4bcfdbfccU, 0xbdd29f153d31bf5cU, 0x3d0c92983d38fc0cU, 0xbde6cc523ddd3c7bU,
  0x3d9e1056bd7676d1U, 0x3cf438bdbe143667U, 0x3dc7eca83dae1789U, 0x3d9c248cbdc9af6bU,
  0x3d90aed4bdd4332dU, 0x3d8e3fbf3c29bb61U, 0x3d2c22f83de21c1eU, 0x3d3e9997bd5a0e5aU,
  0x3df3769bbdbf50cfU, 0xbcb46175bdd8f55eU, 0xbb9bd6003c9d3ce0U, 0x3e0192763d9337bcU,
  0xbda73ada3d958518U, 0x3d147e703cf0c628U, 0xbc165dafbe0a6bceU, 0xbdd21344bdb03e51U,
  0xbdf2a85e3d246c62U, 0xbe0a88fabe42da18U, 0xbdcd7426bd1a0898U, 0x3d8e616e3daeb9f3U,
  0xbe0e8d40be19d3c1U, 0xbcdaa6d8be3319a3U, 0x3ded0caa3e1bd562U, 0x3df2101abd0da9c4U,
  0xbd6cee953e0afdd7U, 0xbc1c503cbe1d1e5fU, 0xbd077f523c103163U, 0x3d07fa66bd8e050bU,
  0xbde1905bbe22282bU, 0x3dcc0e98bd84c037U, 0x3d07aee2be23dc8cU, 0x3dd3185abd2da17cU,
  0xbc4509503c5c5070U, 0xbf60ef283f38a182U, 0x3f18b1743ea4cd3bU, 0x3dd044fcbe12fc17U,
  0xbdf72170bf56b34eU, 0xbfa4ea5fbdd70bfbU, 0x3cde591ebeaec92cU, 0x3f45a660bf83629bU,
  0x3f263e7f3d0e5eacU, 0x3d0af967be54b32cU, 0xbd494c6b3e38080bU, 0xbc87b4543d798edcU,
  0x3e1374f4be2036b7U, 0xbda369f13d1194d5U, 0xbe21f2313f5d6fc6U, 0x3f0f44f53ed70a85U,
  0xbd44f23d3d501620U, 0xbd265030bee47550U, 0xbdd318febe5d12daU, 0x3f35e4ed3d272eccU,
  0xbcfc28a83ec2c5f4U, 0xbda4424cbca963c8U, 0x3ef0b0d1be1a3487U, 0x3daec7753f71c942U,
  0xbdeaf3c23eabfe26U, 0x3e19e96d3b321f40U, 0x3e0cff34bd3ac934U, 0xc00b57a9bc0cfa90U,
  0xbe04f3aabcd08aa8U, 0x3ed6b545bbdc8880U, 0x3d893adebeedbd26U, 0xbd56c1803dc6d4ccU,
  0x3ed11f183f5211f6U, 0x3d9727ba3e48989dU, 0xbea96ae2bf01aa93U, 0x3e79d203be6b9625U,
  0xbcdc513a3d96af26U, 0x3e1fc6643f84071eU, 0x3d309db83d772740U, 0x3de536ac3f6de872U,
  0x3eb7982ebeb85963U, 0x3f3905823d9b4c00U, 0xbf0a295a3f0ce190U, 0xbef441233d861eb0U,
  0x3f781d3f3f32cb3aU, 0x3d03b6ba3e95a11bU, 0x3e2f0f3c3dda9ed8U, 0xbc6569b0bec89a57U,
  0x3cf6c04b3d8c2d36U, 0x3f087cd03deef1d8U, 0xbe21dbc6bd3f4164U, 0xbec67aa93f3bd3c8U,
  0x3ea346a13dd8f04fU, 0xbdbd8fb6bb264640U, 0xbe3a4258bf11f667U, 0xbe6aa7093ca11080U,
  0x3f62dc3fbe3cbad8U, 0x3f41d23ebee7b4c5U, 0x3f9875e33e12ae78U, 0x3b621c363e6ab4eeU,
  0xbebc07f3bf8c7292U, 0xbf39be32be09167aU, 0xbb39c4803e091918U, 0x3d61028c3e92fdfaU,
  0xbda0a46b3faaff07U, 0x3f9467503f2aa2caU, 0xbe09617d3dbc74b0U, 0xbe2e4b3ebf3e2c86U,
  0xbef4ea4c3f4c15d3U, 0x3f009010bd139a8cU, 0xbdaae79abd3ac008U, 0xbc967cb8be174c8dU,
  0x3ef6d7ef3d7aac42U, 0x3e0071873f5acba3U, 0x3d2b4110be0a3797U, 0x3e8f54503e077c62U,
  0x3e91b24bbdfed052U, 0xbf0303623d20276cU, 0xbce4e490bd8c3b1dU, 0x3f38b56dbe0e0324U,
  0x3f1a42c5beeea521U, 0x3ce521783e11cdd6U, 0x3e353d063fadc92fU, 0xbdcabd1e3d3ee59aU,
  0xbed1045cbe83ac4cU, 0xbe8fe2e93ede4f00U, 0x3e6d49f53e62806fU, 0xbda601e1bee73de8U,
  0x3cbe8950bcaa6348U, 0x3e2315283f489e24U, 0x3eafbeaf3f37a43cU, 0x3f6ae52f3de53d54U,
  0xbf140cc13faeddb7U, 0xc045339f3f020b4dU, 0x3f1d0f933e66d2daU, 0x3e5ac1ea3e89303bU,
  0x3ccc3b6f3cb79778U, 0x3cd2aab03efee0d0U, 0xbec27fbcbe131221U, 0x3e0b2252bd644770U,
  0x3e143340bd4632deU, 0x3f3bc3b3be822f65U, 0x3b29b1333d727bdbU, 0x3dbcb9843decdc68U,
  0x3ef22ef83f7f973cU, 0xbd82ca85be1212b0U, 0xbe91d8003e38f6f6U, 0xbf06e2503f439284U,
  0xbf99a7273cbe41b0U, 0xbce5bb60bd8a80e2U, 0x3ea120513ec92773U, 0x3f10f467be15be18U,
  0x3cd21e90bd7971f0U, 0x3db1a2d83e1a7c1fU, 0x3ee5ee9fbe8ee503U, 0xbf0521b43e717547U,
  0x3e550bfdbd89c0cbU, 0xbdbdf5e73f3d03deU, 0x3f2a09f13d1206a5U, 0xbe9ca15c3d7d441cU,
  0x3e012eba3ede0832U, 0x3dbad99c3d634210U, 0x3ee823a2be13bcc5U, 0x3c0e4ec1bf941e8fU,
  0x3c03f4003ea11341U, 0x3d83dd9bbdbb054eU, 0x3f2b63a5bdbda129U, 0x3fa0e252be250facU,
  0xbe2eef283c2e0430U, 0x3e13ccbe3da781f0U, 0x3f14ac393ee448f1U, 0x3d249ea8bcabfa90U,
  0xbece8e77bf43c68eU, 0x3d20fdc4beb69255U, 0x3ebca3103f172143U, 0xbdeefe4b3f5c1590U,
  0x3f8a72c83e8c4daaU, 0xbe085a163d1660a5U, 0x3e227170bd7fc594U, 0xbcf22e10bf0f1190U,
  0xbe827de63e6dd8eeU, 0xbea98eb0bcf36f18U, 0x3f988192bf5789dbU, 0x3e69ad35bfaf2837U,
  0xbeb04721beae3571U, 0x3e5640413d496848U, 0x3ef59d1e3dfc04a4U, 0x3de1c7a4bf2de4e5U,
  0xbf06ba8f3d938a8cU, 0xbdba99d6be26e9f1U, 0x3d2b7780be2cbaecU, 0x3f80ade0bf623473U,
  0xbeeeea62bf8948bcU, 0xbdc4d343be2595b4U, 0x3f04c3c73f696527U, 0x3fa43313be258c9fU,
  0xbe3c3b053e9eb507U, 0xbf6c785a3fb37c48U, 0xbfae909dbd02cae0U, 0x3ef48d2d3e9a8d94U,
  0x3e97e2a9be7dc6f9U, 0x3e9921e03d90458aU, 0xbd51133abdce2b50U, 0x3df1d4a0be44dcb1U,
  0x3e37b8edbf7508a7U, 0x3e86bff33de4908cU, 0x3e9d4270bdaa91cdU, 0xbdb597fc3d95944bU,
  0x3e9323b73d0e2105U, 0xbf3630483e2cffa4U, 0x3dcb8a0cbf146261U, 0x3de3c3443d0ef97cU,
  0xbe036073bdbc89deU, 0x3d1bfe77bf354d1fU, 0xbce79b38bd67df4eU, 0xbd109fcfbd9f5b14U,
  0x3f141f4e3e2616dcU, 0x4022f11fbb0d9580U, 0xbe1e47963d0d3480U, 0x3d8cbc5e3e114682U,
  0xbed853763f0ebcceU, 0xbda582083dab4a60U, 0xbedb816bbf537c5fU, 0xbdb28d04be4baeb7U,
  0x3f03ee063f8a6e13U, 0xbe8cd8a83fc00bd5U, 0x3fd4a33e3f221a8fU, 0xbe2d439dbfe0774dU,
  0xbe1a4afcbdce00caU, 0xbddae9debfe84536U, 0xbf2580ca3f066cf5U, 0xbf399779bcb61428U,
  0x3d7880a4bf8c5451U, 0x3f336855bdd923e3U, 0xbf9dbd29bf28560fU, 0x3c5f69f33e656c0cU,
  0x3f0031f83e050942U, 0x3d9b2a343e8905c4U, 0xbea8840fbe29b493U, 0xbf28abba3d5545f8U,
  0x3ddb3a00be10bde7U, 0xbdb970513ec491b6U, 0x3e076862bd73f38aU, 0xbcc82d98bdd6491aU,
  0x3e20baeb3d896a4fU, 0xbf6b84243e0b80c2U, 0xbd022899be8f073cU, 0xbd9f9215bf043ecdU,
  0xbccfa3e73ce02b40U, 0x3e910e11bdda9cbaU, 0x3dbc86383efbd492U, 0x3e4357203cc6bc78U,
  0x3d9206603e082792U, 0xbdafbfa53c41b91cU, 0xbcd43548bd191781U, 0x3bf7d2df3e3962f1U,
  0x3e254592bda753deU, 0xbdb52cd03dd82c78U, 0x3ebdbd64be23b75cU, 0x3e8566ebbe29078bU,
  0xbdf8d8a23ef7cff9U, 0x3d7447383dd743d0U, 0x3d47a3ef3df88b7cU, 0x3d7b89053c04446dU,
  0x3d83c7b83e810de9U, 0xbdc88905bd36bfdcU, 0x3d1d4781bd2d0eecU, 0xbf97c781bca9dab0U,
  0xbd764b1c3d894f6eU, 0x3eb725b8bdaae231U, 0xbd84d312be04997bU, 0x3df63620bd36c4a0U,
  0x3dc45e03bdaf177fU, 0xbd48eeaa3ed8b914U, 0x3d61b977be941b45U, 0x3dacb1be3e7e276cU,
  0x3f10fb433da45424U, 0x3e0d9f443f09592bU, 0xbd5d73cc3e0a8ddeU, 0xbdf898c43ebe9160U,
  0x3dd9f2d2bcaedff2U, 0x3da3a556bd969537U, 0x3ed2fb49be08b034U, 0x3d9ee0acbef72c2bU,
  0x3e8068553e98b24bU, 0x3e21073d3e89f532U, 0x3e7f16483dffb650U, 0xbdcdf2ffbea6392eU,
  0xbe3829e83d2c2564U, 0x3f02f56cbd332278U, 0x3e2b47363d519eb4U, 0x3ea24eb0be891c74U,
  0xbed7718abfe388c1U, 0xbd1ac4e0be263341U, 0x3cf7562c3e84275bU, 0x401046fc3d784e18U,
  0x3fe0f25d3d814eb0U, 0x3ef1b0ee3f5a67d3U, 0x3e886eabbd6e1f02U, 0x3ec265663f1bad27U,
  0xbebcd4b7c0040caeU, 0xbea739923d4020f4U, 0xbdcbdee9bda3ceaeU, 0xbdad3c0e3e1b7e18U,
  0xbd1f1200bdf1278aU, 0x3f907b423e61d613U, 0xbde4d6cf3c5e26b0U, 0x3c6b29903d0e864fU,
  0xbec79c3b3fabf992U, 0xbf1fcff8be0b83a2U, 0xbd5a395abef9f650U, 0x3e1b6d36bddaf699U,
  0xbe5b216bbe06be79U, 0xbd69db753eb495baU, 0xbd51be66bea7d0c4U, 0xbd18b4a3be1bf04eU,
  0xbec0c6e6bd1d592cU, 0x3fdaf7ef3d7ae93cU, 0xbd228e583e150dd4U, 0x3eb8b7f63ceb3f50U,
  0xbfe3759f3dde73a7U, 0x3d356cc43e2c17faU, 0xbe5f60653e9572afU, 0xbdf6faa7be2f698bU,
  0xbe34967d3f8bb0dcU, 0xbed6d4193f7229b6U, 0x3fa99841bdb1876aU, 0x3dc33d08c013fc3dU,
  0xbd3c644c3bcb1320U, 0xbd3d382cbf709875U, 0xbf1a4ce43f828ae0U, 0x3e24fff43e0da48aU,
  0xbdc35ce03ed38e2cU, 0xbe7588c73fe72665U, 0xbfa347d5bf1af10dU, 0xbe46adb73eeed635U,
  0x3deedd173d918fc0U, 0x3e1162864000a357U, 0xbecdaf773b989220U, 0xbf0fc1ff3ddaab2cU,
  0xbe195c943d831698U, 0xbf016d9c3f5821f4U, 0x3f32c11d3eaf1fdaU, 0xbe17d3623d8bf4dcU,
  0x3e6978fbbf6613f2U, 0xbf6607d43daa9dfdU, 0x3e699257bf004881U, 0x3f090741bdfb2becU,
  0xbeb3bb913da69c08U, 0x3e59b286bea4b6d4U, 0xbdc0eb083b8807acU, 0x3a248b463e2707e8U,
  0xb9897c003dd9fb20U, 0x3e0ad4c0bdeb17a3U, 0x3b50c04f3ec8c0e7U, 0x3f6a62573f7231ddU,
  0x3d425dae3e14d25cU, 0x3d94cfe4beb26448U, 0x3e591fb3bed16c83U, 0x3f1383e53c5ea280U,
  0xbe2a774a3f68167dU, 0x3dc91700bdd5acf5U, 0x3f88956abe2cbf60U, 0x3e08f2603eded3adU,
  0xbb2e2f403ebf575eU, 0x3e34fd403d1dd894U, 0x3ef0c8debdd51910U, 0xbf6d5e20bc9a56c0U,
  0xbdca650b3d98a36aU, 0x3f96ec34bb0ec880U, 0x3f745e71be630e7aU, 0x3e25b05ebcb6dc68U,
  0x3e4f25a23f1865afU, 0x3d832118bc05053eU, 0xbe2b9af43e7a4575U, 0xbdda93573f0caee6U,
  0x3eda5b6b3e967d58U, 0x3dcc9cb83f38bc97U, 0xbdb980a7bd35eaa4U, 0xbdcd7bae3f73fb05U,
  0x3e80eeb5be01d04cU, 0x3f826eab3d8a343cU, 0xbf383f9dbefe3232U, 0x3f96da8e3e093b57U,
  0x3f4891cf3f107b38U, 0x3e7838a83d4adf94U, 0x3e8ab4b03def0678U, 0xbd6d7fcabec76a72U,
  0xbe5fb929bddef153U, 0x3ed3805d3dced42cU, 0x3bd59ba03c364b00U, 0xbdf9e0883de03590U,
  0xbdc1be033e04bed4U, 0x371000003c3a6bb0U, 0xbd16ba8c3d87ad98U, 0xbcbb97483e1e2326U,
  0x3d1664f0bdd8078fU, 0x3da37b703e250776U, 0x3d962234be196561U, 0xbdf54e7dbd92381bU,
  0x3e054cf4bde8b9eaU, 0xbdc338d53cc0a930U, 0x3e2d20903d4cdcb8U, 0xbdcc57f0bdb13ce9U,
  0x3d4382283c22be90U, 0x3e1911823e0d403eU, 0x3e0524e23d88fdb8U, 0xbdf78cb0bde7d70aU,
  0xbe2162033d990e42U, 0x3e066b583d86cbacU, 0x3dad06b0bd8f1339U, 0xbd88a3123dd4cbb4U,
  0xbbc217003e2b775aU, 0x3df8f9c43e2a9bb0U, 0xbca734583d85b1b0U, 0xbde0330ebdc57385U,
  0xbe19a2063dad7890U, 0xbdd53a88bd5ed96cU, 0xbd9fc12f3e0ae3a0U, 0xbe0870c9be1c79b9U,
  0xbd9810043e2967c8U, 0xbde1d60f3deebe14U, 0xbd3d8fc8bcef1fc8U, 0x3d24c4f03e30f42aU,
  0xbc88d5583d278be8U, 0x3b811aa0bde2048bU, 0x3da83d68be00df71U, 0xbb9f05603e2490c0U,
  0xbd4264fc3e0d0cdaU, 0xbce08a003dbe9f20U, 0x3da04448bdaf4ba3U, 0xbde286f23e070ebcU,
  0x3c995c203d9efd08U, 0x3d3e3488bdbfdcefU, 0xbe1f6e96bdba6153U, 0xbda16248bd228184U,
  0xbd4c124abb907400U, 0x3e0fa7163db2cf18U, 0xbc384330bdbf78f9U, 0xbdad058abe17f7eeU,
  0xbd95c3503e03c6b6U, 0x3db31900bcbf2f17U, 0xbf669c0fbf9e1a54U, 0x3d3bc9343d559efcU,
  0xbf29af6f3d1b1726U, 0x3ffa33dc3d35aab7U, 0x3fb2dab53d56008bU, 0x3e2a21d53f07681eU,
  0x3f3ba6b4be107172U, 0x3e0eeb973ea0417dU, 0xbe3ea486bfa5d727U, 0xbf6cdc913b602e80U,
  0xbc26af803e30ddbeU, 0xbd1d577c3d297275U, 0xbe1667163e83df0aU, 0x3f1af0c0bbd662cdU,
  0xbf64dc00bde3a0afU, 0xbdf264363d139bdaU, 0xbfbcc41e3f7bb044U, 0xbecdc45ebd7a3ee2U,
  0x3d124ed0bf4736ffU, 0x3e1277683db788acU, 0xbfe96ec43d2a3033U, 0x3e2f4d533f0a0a63U,
  0x3e07e91cbf763b8bU, 0x3d83bd38bc243a10U, 0xbf61a7d83e2633acU, 0x3f51d4f7bd46d810U,
  0xbd51424cbe06fea0U, 0xbe181ed6bc3afd60U, 0xbf17d395bdc996c8U, 0x3e269efc3e05c7a6U,
  0xbe1ca0cd3f07d337U, 0xbe08579b3d91073bU, 0xbef0ac5d3e8f1d9cU, 0xbe6afbc03f30ceebU,
  0x3f4792ce3da38c63U, 0x3dced2f8c01b02c2U, 0x3dd1312c3cc4a5c8U, 0xbdedd38ebf828ba2U,
  0xbe68588a3f85fbc2U, 0xbf1a4f44bddc6faaU, 0xbecb9a433f109717U, 0xbef51fe33fd4a10aU,
  0xbf2a16c3bd871070U, 0x3cdb2a1f3eeb3c08U, 0xbd94863a3d266770U, 0xbac90d803fc62667U,
  0xbec442bc3d3b8dccU, 0xbe2e501a3c1b8780U, 0x3dd2fdf43e27f1c6U, 0xbe251cbf3e69d488U,
  0x3bf6b5503dcf1769U, 0x3dc7f1bcbd9ff495U, 0x3e90d40bbddb1cadU, 0x3ed1dfe4be1ce4c9U,
  0x3e3b8c48bea637abU, 0xbe661093bf1987c9U, 0xbd8fde253d389fb0U, 0x3d21b3073c6cc81bU,
  0x3e393d453f0b3ffdU, 0x3ea6b5153d89c2ceU, 0xbdba514d3db50a8cU, 0x3d6b0f20bd13e77cU,
  0x3e911dbbbc2d3874U, 0x3b495228bd5d4929U, 0x3e111dcdbdde6d6eU, 0x3cb29350bd6d01a3U,
  0x3ea9db333ef01207U, 0xbd968f3fbcb81150U, 0x3dc12c20bdc40008U, 0xbd43cdc4bc576bd0U,
  0xbac55bc43d227206U, 0xbbe4657b3de53141U, 0xbd9225563d45718aU, 0x3d0329abbe2fb4e7U,
  0x3de911d0bdac85e3U, 0xbead356fbdc9afe4U, 0xbe043f9b3ce394e8U, 0xbe0029653e1ad08cU,
  0xbed177493e24f9b6U, 0x3e1f8f703df5e2f8U, 0x3e48dd7cbe8a4937U, 0xbdb9ad363e760906U,
  0xbe1dbd96be63c61fU, 0x3eb698a53f37314bU, 0x3f86853a3ed97e45U, 0xbd3919a03e81eec3U,
  0xbcc6bc20bc9c1240U, 0x3dd86e943e2c38eeU, 0x3c1c5da43e88b23fU, 0xbeb232aebd26e550U,
  0x3eaf24323e10a453U, 0xbf5c4af43e61fad1U, 0xbd0761553ecf7734U, 0xbe4158143d98307eU,
  0x3e4d1faaba0b1500U, 0x3d65af183ec56e63U, 0x3dbb5b32bdedf309U, 0x3e9779e33d83ad38U,
  0x3d1ce0f8bcf953d0U, 0xbefcd43d3ef69f50U, 0x3e776ecf3ea2fc1dU, 0x3d945138bdc15ecaU,
  0xbe719222bf01789cU, 0xbfb5c44abd99541fU, 0xbf409e2e3d5dfce2U, 0x3ec1b8efbf8f86f2U,
  0x3efda3e93da0bf1cU, 0xbdcb312dbd30a7a0U, 0xbe144a0a3f0daf05U, 0xbe04d898bdd87b05U,
  0x3c403a503db06588U, 0x3e1222723b93898eU, 0xbe69666a3d5bdf0bU, 0xbd83dc47be97bf38U,
  0xbe86be37be25c37eU, 0xbd2b6ca0bdc09ac0U, 0xbe6f7730bf61cad1U, 0x3e9f535f3d083074U,
  0xbc58b1c03e80645bU, 0x3dafd190bcbacb80U, 0xbe7ae1053e0e4c34U, 0x3dc71d553f3a3fb2U,
  0x3e2d8212be9e8ba3U, 0x3eb9f0123e1c5514U, 0xbf8d051abdc89576U, 0xbfe439d4bd639634U,
  0xbd68c23abd112ba0U, 0xbde737e0bd969510U, 0xbf99e7473a77258aU, 0xbd61d4a63d85e164U,
  0x3eb8735f3ec83144U, 0x3db863b43ebe4085U, 0xbe7108aabf281fe6U, 0x3e4464b7bf87ffd2U,
  0xbf762e39bf221fe2U, 0xbca884e03f7d4d4fU, 0xbdb89a823dfb6268U, 0xbc6406f03f422c2cU,
  0x3e85fee0bf64b4f2U, 0x3ee239313dd51cacU, 0xbf06fa8b3d1d56a0U, 0xbea408ce3d65af8cU,
  0x3e7e616b3ef7ce47U, 0x3ea1dc983eaa1f61U, 0xbed12f77be2bc3ffU, 0xbe0e91edbeefacf3U,
  0x3f0a6daf3d17f2e0U, 0x3f07468dbdd73a92U, 0x3e2b529c3de6c638U, 0xbf1b545f3f0b30ddU,
  0x3da1c74f3eacc28cU, 0xbe251da3bd88f1f7U, 0xbf33bcddbf8dec8fU, 0xbf95cbea3d92e2d6U,
  0x3eaab5c1be1cf6a8U, 0x3f5af1b9bf2616aaU, 0x3f81ea153e0d41e6U, 0xbe3fdd26bd625907U,
  0xbeb1a4d53e77666cU, 0xbf41e022bdc1d105U, 0xbe2d7563bd57bba6U, 0x3da7ed103e5b452dU,
  0xbed67f943f641cccU, 0x3ed9f7b03dffc0dcU, 0xbf311118bdfcd50cU, 0x3e183a4abe7a2e3dU,
  0xbf314203be8e0f5bU, 0x3f28f2f33d6add74U, 0x3dd59fcc3e817265U, 0xbc2a0990bcdc2f40U,
  0xbda002b8be09121fU, 0x3e0aabf43f8319adU, 0xbe2826fcbe9142a6U, 0x3eb975773d2b8960U,
  0xbf33965ebe271ddcU, 0xbfc71594bda4768aU, 0xbdd3dfb1bde3c1fcU, 0x3e84095d3c3a3eb0U,
  0x3e9f196cbf044413U, 0x3dbdfb44bdddaf7dU, 0x3ea6077b3f723dfeU, 0xbbea73c03d9fc533U,
  0xbe348f97beb8829aU, 0x3e7b0548bf665fb3U, 0xbfaf54adbf2c3359U, 0x3dae61d43f9418c8U,
  0xbe00ef133ddc4880U, 0xbe060c103f9b4c3bU, 0x3f44eeb6be89fe81U, 0x3eb399d8bd6835e4U,
  0xbf1724e13f1857cfU, 0xbf0898683f2f06f4U, 0x3f4f1e623f5b92a7U, 0x3e83b2073c903960U,
  0xbf00c0a8bdc921f3U, 0xbdcd77d4be83849dU, 0x3eaa7da4bc8bf628U, 0x3f2ea7763d485f80U,
  0xbbfeb7e0bc25dd60U, 0xbd8f69233e3f2abdU, 0xbe195db03ea276c3U, 0xbe0e0c65bc152d20U,
  0xbe32f14cbe1c30c4U, 0xbee57c25bcad7e88U, 0x3eb21a56be51281dU, 0xbc9d5a63bea1e9ffU,
  0xbedbc35dbdbee62eU, 0x3e54c9bd3d73b434U, 0x3e52fca13f2d075eU, 0x3ca31eebbe102c88U,
  0xbe0c314b3d9ed5acU, 0x3d9ca5763df66411U, 0x3e4a668c3e446065U, 0x3e20c6d8be3f1cedU,
  0xbd06f452be07ea5bU, 0x3d37e330be9670eaU, 0x3e966bcd3e5dcfbbU, 0xbdab74d1bd81e025U,
  0x3d7c08483c726a4bU, 0xbe2cb7803e30bf94U, 0xbe61c914bd5eff6bU, 0xbe1680e13e84849fU,
  0x3d6ca5f0be38bd80U, 0xbcdb2f9fbcf70838U, 0xbe38fdfcbe2e1469U, 0xbf576e7a3d42ccc4U,
  0x3e22c13abe0b4245U, 0xbd984bd3bc0f13e0U, 0xbd11da41bd332197U, 0x3e11fb08bc5d4a30U,
  0x3f1a9de2be7f50cbU, 0xbdd565ec3f1c70ffU, 0xbe093285bea89263U, 0x3ebb26323f180394U,
  0x3f8652823cd02fc9U, 0xbe19a8ee3eee066dU, 0x3aef87003d85f92eU, 0xbc1f1080be40b2cdU,
  0x3e3b5b493e9b169cU, 0xbf0e1d1d3db5f628U, 0xbcd1de7e3e402b4eU, 0xbf3b4b9abe8224b2U,
  0x3db12e893f101bbbU, 0xbe33c1073ea91892U, 0x3b7dc1ac3d2154c0U, 0xbc5b2e203de9865fU,
  0x3e0109f63e28804aU, 0x3f010a71bd5703e2U, 0xbe015330bdbe7eabU, 0x3f3280adbe6703b0U,
  0xbdf07008bea1edd3U, 0xbdff660a3dbc9d24U, 0xbea337c63efadf0bU, 0x3c08d72fbdd8394aU,
  0xbd4e08ce3ebd5fe1U, 0x3c216d643f7bb4ffU, 0xbd87470d3de3c550U, 0x3e5008bc3eb48c5eU,
  0x3e2c56e4bece18b5U, 0xbe2e7a2f3c949f00U, 0x3e01f350bdd2862bU, 0xbc2799803ec0395eU,
  0x3eb86c993eb7f47dU, 0x3df6ba3a3d74bb3cU, 0xbe5bb19dbdbf0bb4U, 0xbd1126c43e849309U,
  0xbe22e3c73e187fe6U, 0xbe329f38bd8545e5U, 0xbd4e3f94be17e62fU, 0xbd681b2c3d10e3c8U,
  0xbd8de6fcbd978b09U, 0xbe25c068be82b18cU, 0x3e0d6416bdfd797aU, 0x3e00eaec3d75326cU,
  0x3eb1ef4e3b750c00U, 0x3fb38b963dd2c8c0U, 0x3ced64a03c7a5160U, 0xbdbb606dbd7252deU,
  0x3ecb594e3e879085U, 0xbcb43028bddb18b2U, 0xbe945ad73df56121U, 0xbe0bd70ebd19e9b9U,
  0x3eab73b73f7ec659U, 0xbcfab5ef3e6d0062U, 0x3e1d88353e000545U, 0xbd349614be2904f1U,
  0x3e0836323dcaf0a0U, 0xbe2a17f1bea526d2U, 0xbdb254a03eb20e19U, 0xbec12e143dbf056cU,
  0x3e8e7843be10492bU, 0x4009d0cabe588441U, 0xbdf2bb83be3a4219U, 0x3ec7d11b3d4615a6U,
  0xbc09c8d4bbf0df20U, 0xbd6f0086be030adfU, 0xbe8fbab33dcdf958U, 0xbec17196be0af232U,
  0x3d75defc3c8614c0U, 0x3ee81683be8d48e3U, 0x3e3eb4383cb78b66U, 0x3e11d32cbe02788bU,
  0x3de6506e3f6a4c31U, 0xbf8c9c9f3d33b998U, 0xbf0bdb023d4feda7U, 0xbf076363be1097ccU,
  0xbf5ba92ebdef4668U, 0x3dbe3802bd5bc812U, 0x3f00a7493f4d2adeU, 0x3eab0bcb3dae5bbcU,
  0xbd00e848bccdac00U, 0x3dee2fac3e184b74U, 0x3e339ae5be08e49fU, 0xbf011cf53e0feddcU,
  0x3e6e222d3d2db650U, 0xbdb728163f0c9bd5U, 0x3ef60978be2dfcd8U, 0x3d72c15abcbb9ae8U,
  0xbe26c94b3eb9a024U, 0xbc875690be0e9764U, 0xbd3982593d81e81cU, 0x3e13fea9bf84c708U,
  0xbd5e3e883d804351U, 0x3db4169cbcb3d520U, 0x3eda8b25bd0be934U, 0xbe6263a7be0c0f50U,
  0xbd016c7cbe2208f6U, 0x3d7bf242be2f4b03U, 0x3f2e0e2c3e975a90U, 0x3e05d84cbd17b5bcU,
  0xbcf54affbf029f9dU, 0xbe1096b73e116c61U, 0x3ea45a00be09b20eU, 0x3edb7e9b3f42998cU,
  0x3f3ab3f83e3edd27U, 0x3b82d8803df0e627U, 0x3e0529483da738c8U, 0x39eba600beb32679U,
  0xbcab02523e502744U, 0xbf03bbe33d54dbb4U, 0x3f59e17abf30ef24U, 0xbed805b0bfea9d9aU,
  0xbe0821553e107b51U, 0x3c92d03abe0e466dU, 0x3e8ca0bfbdaa7196U, 0xbd6b1568bf4fabfeU,
  0xbe9bb6ae3bcda980U, 0x3d2e41c23e01b1d6U, 0x3cb9df403d46d4b0U, 0x3f2efad1bfc525fbU,
  0xbf0ab507be98a896U, 0xbe156af23c0c4190U, 0x3e9308873f500c5cU, 0x40025c9d3e1d7346U,
  0x3f23cee33cd066afU, 0xbfabb5503f06a0a6U, 0xbfc1fdfc3e2d1946U, 0x3e8a2b303e0170d8U,
  0x3ecea4b83e48d1e9U, 0x3f18a657bdb6c557U, 0x3dcc95203d5cb374U, 0x3dc6e6e4beae883bU,
  0x3ee973fabfb35497U, 0xbed15344bf2b0043U, 0x3ed49fc9be2084cfU, 0x3c7aa1f0bee33c9dU,
  0x3ea8e4f03efe66e2U, 0xbf1956a33e0a18b4U, 0x3d6c11a4bf5f88baU, 0xbdec22a13e30b8f0U,
  0xbf40863b3e0193f4U, 0x3e28b269bf5cb870U, 0xbe2f13993dd8f57aU, 0xbe84d51f3e082974U,
  0x3ed6b25cbda2b242U, 0x402945fd3d255e18U, 0xbd2b06b0bdeacc44U, 0xbf99f4b0be29ec75U,
  0xbf5ecc0e3f19ba57U, 0xbdba5af538712000U, 0x3dd9cf14bf8fc829U, 0x3e1ff9da3f0a1aeaU,
  0x3e84b48d3f13bc26U, 0x3e335da33f8b7e4cU, 0x3f90acf43f218ad3U, 0x3dd22844bf9282a9U,
  0xbe137fb43dbf5b30U, 0x3d1706ccc02216f6U, 0xbce1b66d3f3c8381U, 0xc012b48a3de9f198U,
  0xbe240450bf9459d8U, 0x3e11b4063f8969d1U, 0xbf7bb839bd97f3cdU, 0xbea6b3c5bde119c9U,
  0x3e0fb4c23e2aa948U, 0x3b2adbc03f9a7ec6U, 0x3e6dd029bd85dc84U, 0xbd8b52e73d92f5fcU,
  0x3ae1d5003da6b040U, 0xbde007673f2cb7b8U, 0x3dd0b9833efb536fU, 0x3e20c5d0bce41cc8U,
  0xbf17d755bef3bebaU, 0xbfba784dbda45b82U, 0xbe4095c43f17d8fcU, 0x3fa252b5be1e4707U,
  0x3f92d651bdea94abU, 0xbeff124ebe123ad1U, 0x3a8703253ea6b368U, 0xbf235917be0d9650U,
  0xbe1ad2ee3e1e2412U, 0xbcc433903f0fda80U, 0xbe19a1a73f4c7be4U, 0xbe932d3cbeae430aU,
  0xbefbab2b3c0bd8a0U, 0x3a8a8d80bc3b5599U, 0xbf3f3449bed69c0eU, 0x3f27e29a3e2dcfe2U,
  0xbe1e3c1a3e9ca6aeU, 0xbe1e6109be2978d2U, 0xbe8cd399be144d60U, 0x3df3b02c3f3f2cc8U,
  0xbd1759ccbe15fe4bU, 0x3f0bb6d7bd89fe58U, 0xbf8fcdc1be20079aU, 0xbfdf03bb3e2f9aceU,
  0x3e15fe783cec38e8U, 0xbcf3849a3dee8a38U, 0xbf1abf573d79f6f5U, 0x3e2e71fc3cc706a0U,
  0xbdbb469e3f6708c4U, 0xbd89f5ecbe9d09bcU, 0xbdef8dccbe4e953bU, 0x3c0d03e8bfec3e74U,
  0xc032a611bf9702cbU, 0xbc0d2e003f57a0cfU, 0xbdc85f66bcb858d8U, 0x3da008b83fb1dfa8U,
  0x3ecd1028bf89c7b8U, 0x3f4ea6c5bdaae15eU, 0xbb8338623f28c423U, 0xbe4f457a3d046b58U,
  0x3ee8240c3e2746e3U, 0x3ed43a723e511c9cU, 0xbf0dcadabdcb9490U, 0x3e14bf84bf95f9c0U,
  0x3ed50c523ded4f38U, 0x3cd2b2ea3e129cdcU, 0xbe24a803babcfb80U, 0x3d5c5847bf1a03a8U,
  0xbf0d6de5beeabb2cU, 0x3c31e530bd34c1bcU, 0xbcec79d6bd40c617U, 0x3ffdbdc5bcd9c300U,
  0x3e9561c4be56593eU, 0xbfbce35cbeaa2058U, 0xbfb393b9bddc0739U, 0x3f010d13bddb69feU,
  0xbc6ab8d7be69d8c2U, 0x3d500737bd2743f8U, 0x3d12d6003e095a50U, 0xbd84d795bee46025U,
  0x3b8b84a9bfae7c76U, 0xbe804110be0c3517U, 0x3e94ce6e3e1a6354U, 0xbd80cff4bf57fa9aU,
  0xbdd173e43e04386eU, 0xbeb2e4ed3e20587eU, 0xbda8dbdabefea942U, 0x3e2e8c7cbd510d78U,
  0xbf8663ac3d1fde75U, 0xbe02154fbf113718U, 0xbe2a2271bef78317U, 0xbdd419c5be1da692U,
  0xbe8c5dc93dc85c54U, 0x3e939c823e0e9016U, 0xbe0be7903d3cb3f0U, 0xbee3b5963d911d18U,
  0xbfde87ac3d1d200fU, 0xbc50d180be05f835U, 0x3f1105d83d5dabb4U, 0x3df9a6a43f2c1001U,
  0xbdc0be17bec7db3eU, 0x3ed4e42f3fabeb03U, 0x3fdd56b33f486e7cU, 0x3d8215ccbfdfc70cU,
  0xbd9fc62abdddb149U, 0x3e11e040bfc7256cU, 0x3eaf20903f1ba6b6U, 0xbfc9fc73bd3a2558U,
  0xbf8863e8bf96f436U, 0xbfe5bda13fc2dc35U, 0xbe82ef733ec31218U, 0xbd96ba6d3eb50e69U,
  0x3e99f4a73dd55750U, 0x3e2e4f703fcbb3eeU, 0xbc7ab9953ab69300U, 0x3eb66ee43ca8beb8U,
  0xbcee84403db9a408U, 0xbecc30a83f1eebd1U, 0x3d377c66be3485f8U, 0xbe045e6d3d8afdccU,
  0xbd9584abbf1347a3U, 0x3f488ed83b977980U, 0x3f53ae84bdb8bbb7U, 0x3f3efbf9bed386b2U,
  0x3fb0c879bba7e260U, 0x3d16c59d3e89f4cbU, 0xbe61f885bf321b29U, 0xbf1e5955be071cd1U,
  0xbcf45bf8bca84ba0U, 0xbe2c4f4c3e81de24U, 0xbedb051c3e948467U, 0x3f0ab5d7be7a049fU,
  0xbf00067c3d96918eU, 0x3e190a863c28e054U, 0xbf5110383f09de6cU, 0x3e5180463d503954U,
  0xbdbfffbf3ec59020U, 0xbe25773bbd42c888U, 0xbe8c7d11be0ae227U, 0x3e0e0ec53f888003U,
  0xbd8d4f76bee103cdU, 0xbcbf2fa1bd220a50U, 0xbf58edfdbd2b84b4U, 0xbf2b9223bd0a7f40U,
  0xbe0d5a763c36ee80U, 0xbcc73ce9be23bf7eU, 0xbf22fca6be53c72cU, 0xbe234643bd801c9fU,
  0x3e1cd13a3ecf8f7bU, 0x3c3275f03d91d597U, 0xbea24eaebe57887eU, 0xbde0d040bec8b792U,
  0xbf567508bf1f9770U, 0xbd8e65cd3dee0807U, 0xbdfdd987be1e2bb3U, 0xbe0badc73f455892U,
  0x3c09a67c3d1df3daU, 0x3ea62e0b3df18aacU, 0xbe9df0673f73a25cU, 0xbf6428f63fcd2dc6U,
  0x3e6f69023e8942c7U, 0x3d89e7bb3e56425cU, 0xbebff621bcdf69b0U, 0xbdde89993f725c1bU,
  0x3e165d433e25e0eaU, 0x3ea63c3d3c81aa80U, 0xbe10be93bdf583d6U, 0x3f04a816bfb7466cU,
  0xbec413ddbf84e1c9U, 0xbe2b7e95bda145baU, 0x3f309e263e9f3d35U, 0x4033f644bb951780U,
  0x3f33b928be6709d4U, 0xbff523d83f3fcfc4U, 0xc00445e5bc8b67e0U, 0x3f48db833eb25f51U,
  0x3db929ad3c384276U, 0x3f6b6e0dbdef7173U, 0xbcf314403de091d8U, 0xbdda9d76bf0f2531U,
  0x3e90c50dc033ec6aU, 0x3f2acdf8be3617a7U, 0x3f628ecbbd842253U, 0x3e1c018ebf807914U,
  0x3f278ecc3e986b7aU, 0xbf7a95163ddc7d64U, 0x3de5fcf8bf8447bfU, 0x3dcff318be09e83dU,
  0xbed83e223da83f14U, 0xbe1e4f32bf247c83U, 0xbe12bfcb3e85a548U, 0xbe97ad34bdf7af86U,
  0x3f2f3cdbbdfd8dd0U, 0x4009c420bddca68dU, 0xbd00f454bdd111ddU, 0xbf10fdc5bdb79088U,
  0xbf9c523d3eb646a7U, 0x3e0d979cbb4a5600U, 0x3ee4f025bf8efd37U, 0xbd0c5b703f23cca5U,
  0xba875ed93f48e4e5U, 0xbb5e66123ff2fa87U, 0x401e2a943f44db52U, 0xbdb78b66bfa5c972U,
  0xbe024525bc7a0b10U, 0xbdb26d78c03b2b66U, 0xbee84c1a3f455042U, 0xbfde0e113c6dfef0U,
  0xbfc76e79c0089626U, 0x3e05d8ed3f96b69dU, 0xbf7ad067bea242f2U, 0xbecd40aa3eab9d81U,
  0x3e8efa55be0cb865U, 0x3dcea0643fd96045U, 0xbcec3a5ebdceefbfU, 0x3e2d38943d3f229cU,
  0xbd112634be2a6ed9U, 0x3e1a7788be4a123eU, 0x3e35b4813f107e8cU, 0xbda5f37bbe203551U,
  0x3e173a663cb73f31U, 0xbf467e49bc95fd38U, 0xbf8f1df53e3e5d8bU, 0xbef1c71fbeaab517U,
  0xbf122eeabdef9b68U, 0x3c3b0d8abe964a3aU, 0x3e58ee983f625b18U, 0x3f10fea43d7abe54U,
  0x3d754a28bdef79b8U, 0xbdb1a1cdbe142cbaU, 0x3e81af5bbf1159eeU, 0xbf3d2c2dbf34f663U,
  0x3e9e01febdf6fde6U, 0x3d0148403e060288U, 0x3eee63e5bf491c20U, 0x3ddf3aa33dc67a74U,
  0x3dc5b0ccbedf7170U, 0x3d1baa34bbc01860U, 0xbed7b1983bc14c60U, 0xbb1d524dbee0140cU,
  0x3b6bb2803e16ec52U, 0x3d58efc03d0a4d28U, 0xbf5d23473e183a42U, 0xbe89c2f7bd334d08U,
  0xbe14a3fabdce2b34U, 0xbf288ec83e064e8cU, 0xbf8c52993e352b30U, 0x3d6d4ee83df49554U,
  0x3ef80934befa3b58U, 0x3ae8a4003e6f9265U, 0x3e590433becc7159U, 0x3ebe7eacbf3d6c45U,
  0xbef2cc84be484008U, 0xbd8abf0f3f7c31f6U, 0x3e286350bde2eea1U, 0xbdaafeecbe9bdbe0U,
  0x3e89a146bf495721U, 0xbf019f0c3e17bafcU, 0x3e835b5bbec492c5U, 0x3f37e911bf5121dfU,
  0x3ddef07a3e8385adU, 0x3db22e01be28b913U, 0xbe69b4a53dff0988U, 0xbdd7fb8bbf3fc88bU,
  0x3ef0c67b3d496f24U, 0x3f0a0ecd3dc8551cU, 0xbe0fef6ebdeb2300U, 0xbd7278bfbdf25261U,
  0x3e4c51c03eba9622U, 0x3db0518c3dcc5a38U, 0x3e09ab9e3e4155b3U, 0xbf639f23be2d01a4U,
  0xbf6922e63da53ed4U, 0xbe81e687bec136b5U, 0xbecd7971bdfc1664U, 0x3cc5f0edbe8a8068U,
  0x3e45ba3a3f7d53a7U, 0x3e316efdba6ebe00U, 0x3d5397543cf7d8d8U, 0xbdba7d8ebdf1a71eU,
  0x3e53f02cbe5b7033U, 0xbf39c04abf15884aU, 0x3dc32b3a3e082c32U, 0x3bdcbde03e8703eeU,
  0x3e97c581bf4d54a2U, 0x3d3a472a3e22d62cU, 0x3db3a778bedfe055U, 0x3d36ba943de8024cU,
  0xbe2b6e9fbe284a8eU, 0x3d2b6bc3be328f71U, 0xbdf115a03e86c9daU, 0x3e5d19a9bd2136f4U,
  0xbf69ca523b9a8ce0U, 0xbedec919bdf31270U, 0x3c1888103d813286U, 0xbf1b4934bd1fb9f4U,
  0xbf8f91543e6c3311U, 0xbd999ad0be0ee4b8U, 0x3e684bd6bea532e5U, 0x3d2ad2b03ef03d60U,
  0x3db6e570bf0dd342U, 0x3efae6dcbf481c45U, 0xbf35a3f8beced57cU, 0x3dd7b3b43f45a61aU,
  0xbe1264c03db7bb28U, 0xbc3862003d5b110fU, 0x3ee555f0bf6303d2U, 0xbe6e37723e00f5feU,
  0x3e889dc1bed62ddaU, 0xbe988417bf4e37bbU, 0x3e8632db3eab9988U, 0xbd9293c4be0a5694U,
  0xbeacd2fdbceb1a58U, 0xbccdc498bf000002U, 0x3e86dfffbc4a4af0U, 0x3f07a5963bdb4ba0U,
  0xbced88283dbf11ecU, 0xbf472ad23f996e39U, 0x3ea19ef13ea5a4d4U, 0xbdc1f1953adb2600U,
  0xbe5b8a6dbf761bffU, 0xbfe61c7e3c42dd07U, 0x3ead3f9bbe961a16U, 0x3fc3b1bcbebc642dU,
  0x3b3c4f053d30824cU, 0xbe6157a83e895dddU, 0xbeb89d3d3e7d4f4cU, 0xbec1905d3d922502U,
  0xbdcd839b3dbb01a0U, 0xba9fed803f08a1abU, 0xbe2b7bfc3f81e2aeU, 0x3f82b5a73eb87201U,
  0xbed45a083db392b4U, 0xbcb8fbe83e92788fU, 0x3d5bdd05bd8c6ea9U, 0x3f2a3017bd0d80c4U,
  0xbdebc0f63e548e48U, 0x3df0af683d613514U, 0x3e88a0f03e3213dfU, 0x3de80c1a3faa7b55U,
  0xbd339e64bd78986dU, 0x3e42f9b7bd49c010U, 0x3b9b4ab5be032ef0U, 0xbfa1ad4b3c661c10U,
  0x3bd9bac0bc510ad0U, 0x3f0f72643df30b20U, 0x3edc7674bed623c2U, 0xbdaebaf83c3c5080U,
  0x3e5faf953f50837aU, 0xbb9afd80be7a798fU, 0xbed65ea53dac6ebfU, 0xbe88811dbf3ba75aU,
  0xbf8e4bb6bdbb8203U, 0x3ce97ed03f71e226U, 0xbdb057ef3d968036U, 0xbdd2f9323fbf2ff8U,
  0x3e41b1ca3e567ad2U, 0x3f5769b2be2a0bd1U, 0x3db955f43ea7dd09U, 0xc020687abf0b48b0U,
  0x3f2c641a3e769cf6U, 0x3e2547cd3ccb77bcU, 0xbebd99043d545f00U, 0xbdb3f2fdbf1c7a14U,
  0xbd85cfd9bd95d67fU, 0x3d73b38c3d06d9a4U, 0x3dd3af683e277c8cU, 0x3f20af05bf7aed56U,
  0xbe461da2bf188489U, 0xbd9265cabcaece50U, 0x3f689d0d3f2c40e4U, 0x3fdd7de0bd46ebb8U,
  0x3ef6ee0dbe756092U, 0xbfcd004d3e4a31bdU, 0xc0165ed73cf24dc0U, 0x3ef4f43d3e664483U,
  0x3e89a11cbd0e0fb4U, 0x3f64fe543d83f056U, 0xbc0703703cb28760U, 0x3dbdbf88bf0dbc93U,
  0x3e9c2d74c016a226U, 0x3ed9d8e1bd92b873U, 0x3f5675eb3dd134d0U, 0xbe06edfcbf0e1266U,
  0x3f532d6b3e9df5abU, 0xbf49799d3e312438U, 0xbe0fe51bbeefc633U, 0xbd598e443c274e50U,
  0xbd917d773e15bbd0U, 0xbc6c58dbbf9c212aU, 0x3d0077d43e6a5d41U, 0xbe8bb3eebe2f34e5U,
  0x3f2541773e1ca8eaU, 0x3fa039e23e25c7c2U, 0xbe2192eebdfbf9dcU, 0xbe66380abd093288U,
  0xbfb919523f0fbceaU, 0x3d734cd0be2125caU, 0xbd269538bf900482U, 0xbb8952603ed9a8b5U,
  0x3e6137913ebaaea6U, 0x3dbce8c93fc2f8a3U, 0x3fff4f3b3f29b1abU, 0xbd9f7a9abf1b80adU,
  0xbc229fc0bcec0240U, 0x3d9a1216bff023beU, 0xbeaaf5553f1af114U, 0xbf8cf3493cbd43e0U,
  0xbef13d04c000551dU, 0xbf454f893f0fc6dfU, 0xbf4e19fcbe85fe18U, 0xbe7927243d9faae4U,
  0x3ecc70953e1397baU, 0xbbacf1a03f8a8cb6U, 0x3cc4c650bd6f367aU, 0x3c39549d3db32768U,
  0x3d332cb03d61962cU, 0xbd79427ebd0a713fU, 0xbd50a3e13d4c1e54U, 0xbe0eae3cbcbb1730U,
  0xbe25c2fdbd43e06eU, 0xbe18c7ea3e195a54U, 0x3cbab6283e03fc39U, 0x3d39d8273dc8e78bU,
  0xbdd8e78b3ce94738U, 0x3dc59ad53e00d98eU, 0xbc81a4b9bd06f148U, 0xbdef7c6c3b99b3c0U,
  0x3dbe4dfc3e247650U, 0xbdfa14e23db3ff20U, 0xbe42d9f0bdb2eaf0U, 0x3e16cdbf3e235d84U,
  0xbdc46606bdf5a29aU, 0xbe2fae923d99ce1bU, 0x3d735515398c9250U, 0xbd2a78ebbc472900U,
  0x3e21d6b8bc3780b7U, 0x3e20017abc053790U, 0xbd0e1f9a3e168e78U, 0x3ddeb9a6bdbb4177U,
  0x3e2093a8bd63567eU, 0xbdeadfdf3d949ecaU, 0xbc5a1f063e266f44U, 0x3bd5a311bdef3522U,
  0x3d59709cbdb389f0U, 0xbd41acf73dc07908U, 0xbdae94c33d4bd74dU, 0x3e1b735cbe179f5eU,
  0x3d7a3c1dbdbef3e7U, 0xbd2c134c3db32f3dU, 0x3dbd1d91be04287bU, 0xbbea46eebde9fe16U,
  0xbd8e4b4a3c973b4dU, 0xbda0ae42be1efc38U, 0x3daa5608bd1dcb68U, 0x3c2421d0bdf5931cU,
  0xbd359f93bd896321U, 0xbe04766b3e2e9458U, 0xbe21af3c3e1ef4bcU, 0xbcea0fa63e041986U,
  0x3d48b79ebe35a1f7U, 0x3e0448663e167bb7U, 0xbd8c7166bddad1f1U, 0x3dc9c3ecbe3e7832U,
  0x3d1d91623c323160U, 0xbd546abcbd5136feU, 0xbdc67994bd95e40cU, 0x3f0e1127bd279866U,
  0xbd75d736bde58cbbU, 0x3bd071c03dffe3bcU, 0x3e0ff2623eaf54c6U, 0xbb635311be19374bU,
  0xbebe05583eb00633U, 0x3b5ace313f478042U, 0xbe65401bbd2bc700U, 0xbc817b1c3e902958U,
  0x3ee68473be5e781eU, 0x3e90a4febdc39328U, 0x3dbd7764be2c3cdfU, 0xbdeb6c343c59e6d4U,
  0x3ecd0c4dbd262d97U, 0xbe3b5b313dacd9c4U, 0x3bb09bf5be0ff493U, 0x3b317f403eeb1034U,
  0x3e295de5be8dba51U, 0xbc90b440bdc49891U, 0xbdd753f73da762e4U, 0xbd87742d3dc64098U,
  0x3e47ce663cf3baf8U, 0xbdea941fbdf666cbU, 0x3e0b6136bd542acdU, 0x3eb31eb2bd72cbfcU,
  0x3ecc33e03e1f81b4U, 0x3f843c2dbdd770d9U, 0xbc3b9a803b083c80U, 0x3e5c15013e258540U,
  0x3e8b9e983e8572b1U, 0x3de7d6bcbdae8766U, 0xbf0e6e5ebdd760b7U, 0xbe2e0f7fbeeeb234U,
  0x3eb5db6d3f47a443U, 0xbe1d454bbc253be6U, 0xbea1f9d13c1d8559U, 0x3ce2acb83d20261bU,
  0x3e2b11acbe21eb65U, 0xbe08b7b9beafbe3eU, 0xbe8941153d1b0978U, 0xbe0bfbc23e315422U,
  0x3e8e036cbf0fe208U, 0x3fb0b782be8871f6U, 0xbf068bc9bea2cf19U, 0x3ee122e73e471a3eU,
  0x3d3fc375bcaa60c0U, 0x3dfb0e4cbf14f317U, 0xbe881953bd4cf234U, 0xbf15002fbd2fd568U,
  0x3d4c3f48be2b116eU, 0xbe69338e3e1cd62bU, 0xbce1419a3eb6acfeU, 0x3d507288bd9cdb37U,
  0xbf18d5bbbee34880U, 0xbecefda8bd3bb380U, 0x3e55854f3ea17ce1U, 0x3f72ab013f35361bU,
  0x3f823b253d646738U, 0xbe5f5630bd73329dU, 0x3ded897bbe8680a8U, 0xbf08f6b9bd1ba2b4U,
  0xbdbdfca8bcd73558U, 0xbd2d10703ec98727U, 0x3d84f8f43f2c75e3U, 0x3e2d27bcbda8fb09U,
  0xbeca1ae93e0c06d4U, 0x3d4c3454be9278d7U, 0xbf398969be83922bU, 0x3ed221ecbd04b35cU,
  0xbdedc597be2717e8U, 0x3bb7fc003dc40890U, 0xbe43f5403d2ee7b8U, 0xbe2083c53f612fdfU,
  0x3e1aeb78be864a7eU, 0x3ed0216bbe0808a2U, 0xbea7c8b0bdf08657U, 0x3e447b913be8f6a0U,
  0x3e1007d03d38e664U, 0xbda97bfbbdff683fU, 0x3ea8daa1be8a55d0U, 0x3d66bb18be13e7f6U,
  0x3b540cee3f61eed7U, 0x3dc7ae50be2e48eeU, 0x3d3211dd3eec4fa6U, 0x3ca845bbbf9f3952U,
  0xbff54526be9908f7U, 0x3deb3d443e96ff55U, 0x3d8bdb383da96738U, 0x3d9e94b03f3585d5U,
  0x3eb8b31bbe969abdU, 0x3f097d833d2d6934U, 0xbee8ee3e3f3450a6U, 0x3ea083d63f721cf8U,
  0x3ebb2b883eaa0331U, 0x3e8cab123e2467c8U, 0xbeb46e00be139ca9U, 0x3df649d4be62b1edU,
  0x3e7971ac3d48ae30U, 0xbd0312e93d82e62eU, 0x3ce6d6f8bc8392c0U, 0xbe305d3abe64cf62U,
  0xbf539df23eccd12eU, 0x3e2d250abc6247f0U, 0xbfafe7913e034fcdU, 0x3f715915bccaebc0U,
  0xbe160ee83e7c792eU, 0xbe5032ddbf490616U, 0x3f8ab38e3e1c8324U, 0xbdc8c126bd808e60U,
  0x3e6b0f743d942737U, 0xbfa246f2be241337U, 0x3dd037943e0f2424U, 0xbe219b34be5c76d0U,
  0xbde2c5773e04daa7U, 0xbf73ed92bee6bd1aU, 0xbf1ebfc63df88238U, 0x3e0aee8cbd2b27ffU,
  0xbfd683283e8db11fU, 0x3e3997a1bd5b9838U, 0xbc8f8ea8bef232f1U, 0x3d6161d0bce1db28U,
  0xc00df8f53aebea7fU, 0x3da6ad183ebe4044U, 0xbdf21828bf84fe15U, 0xbd59c1e93dc31d5cU,
  0xbf6b8f60be1fee85U, 0xbfab09e7bdc77ff7U, 0x3cae59a8bd94e6cdU, 0xbf8ba2ee3e15f464U,
  0xbf1bebb1bd3a0cedU, 0x3e10ce6abda76223U, 0x3f104c813f1f14d3U, 0x3d8502363f1ad3d9U,
  0x3e1123d3bf62e0ffU, 0x3eb937ddbed94f02U, 0xbe932c0d3c6d0e1dU, 0x3c4d0180bfa623d9U,
  0x3e196fce3e1362f8U, 0xbcc79598be49881dU, 0x3efb08e53eba5ea1U, 0xbff8a26b3e13aee6U,
  0xbe7378c33f8bf5f7U, 0xbfd546bb3f5bbe7aU, 0x3ec17c1f3f2943cbU, 0xbe90aa7c3e5a6257U,
  0xbe47f634bd354e60U, 0xbd8ce4553f2ad11eU, 0x3ea908c4bcbb6218U, 0x3ec1eab73e259d5eU,
  0xbe05bd1abdd00830U, 0xbd92015abdf04350U, 0x3da523543ca1a4b0U, 0x3e28a6423d376d60U,
  0xbe1a2320bd941d84U, 0x3e2bb990bb0a6140U, 0x3d2ada50bd53e2daU, 0x3e24b78e3e02e8acU,
  0xbe13b190bcf78100U, 0x3dba4154bd941466U, 0xbe0bffeb3cb358c8U, 0xbe26af7c3d7791e8U,
